<|unk|>	0
<s>	0
</s>	0
▁t	-0
he	-1
▁a	-2
in	-3
▁the	-4
er	-5
on	-6
▁,	-7
re	-8
▁s	-9
ed	-10
▁o	-11
nd	-12
▁w	-13
at	-14
▁.	-15
it	-16
or	-17
is	-18
▁c	-19
en	-20
es	-21
▁f	-22
▁of	-23
ar	-24
an	-25
al	-26
▁b	-27
▁in	-28
ing	-29
▁p	-30
▁and	-31
as	-32
ic	-33
▁to	-34
▁m	-35
▁d	-36
ro	-37
▁h	-38
ion	-39
le	-40
ou	-41
▁T	-42
▁re	-43
▁=	-44
ent	-45
▁"	-46
il	-47
▁A	-48
▁th	-49
▁S	-50
▁C	-51
▁1	-52
el	-53
▁@	-54
st	-55
▁l	-56
▁e	-57
un	-58
om	-59
▁n	-60
ac	-61
ad	-62
am	-63
ol	-64
▁was	-65
ec	-66
▁g	-67
▁The	-68
▁I	-69
ur	-70
▁on	-71
ly	-72
-@	-73
▁@-@	-74
▁M	-75
▁for	-76
▁B	-77
id	-78
et	-79
im	-80
▁'	-81
iv	-82
ir	-83
▁as	-84
ot	-85
ith	-86
ig	-87
ation	-88
ter	-89
▁H	-90
ow	-91
ut	-92
▁2	-93
▁st	-94
ay	-95
her	-96
▁with	-97
us	-98
▁that	-99
▁P	-100
▁R	-101
▁F	-102
▁be	-103
ver	-104
▁W	-105
▁is	-106
ch	-107
ul	-108
ce	-109
▁G	-110
and	-111
▁al	-112
em	-113
▁wh	-114
▁N	-115
ers	-116
unk	-117
ra	-118
▁by	-119
▁(	-120
▁)	-121
est	-122
os	-123
th	-124
▁<	-125
▁con	-126
ist	-127
ct	-128
um	-129
ag	-130
▁J	-131
▁an	-132
▁L	-133
▁at	-134
▁D	-135
▁19	-136
rom	-137
av	-138
00	-139
▁it	-140
▁he	-141
od	-142
▁E	-143
ri	-144
ain	-145
ort	-146
▁from	-147
▁his	-148
ies	-149
▁pro	-150
ere	-151
▁com	-152
op	-153
▁were	-154
▁su	-155
▁de	-156
▁O	-157
oc	-158
ill	-159
res	-160
ew	-161
if	-162
▁se	-163
pp	-164
ity	-165
▁In	-166
ld	-167
ore	-168
all	-169
ate	-170
ant	-171
igh	-172
▁or	-173
▁v	-174
ich	-175
▁sh	-176
▁ex	-177
▁r	-178
ab	-179
art	-180
ated	-181
ard	-182
▁pl	-183
qu	-184
ud	-185
▁ch	-186
pt	-187
ak	-188
ess	-189
gh	-190
ber	-191
ong	-192
rou	-193
se	-194
ord	-195
ip	-196
▁U	-197
ast	-198
▁had	-199
ish	-200
ment	-201
▁are	-202
ect	-203
rit	-204
ial	-205
▁sp	-206
ear	-207
▁which	-208
ive	-209
ame	-210
▁St	-211
ian	-212
ov	-213
red	-214
▁;	-215
▁le	-216
▁ar	-217
▁u	-218
▁Ch	-219
our	-220
ia	-221
ell	-222
▁K	-223
ost	-224
ack	-225
ary	-226
ine	-227
ue	-228
▁not	-229
ge	-230
ight	-231
▁k	-232
ther	-233
▁3	-234
ical	-235
ap	-236
ru	-237
ave	-238
nt	-239
▁y	-240
▁–	-241
▁her	-242
og	-243
▁200	-244
ous	-245
▁un	-246
ub	-247
cc	-248
▁inc	-249
ork	-250
▁20	-251
so	-252
ran	-253
fter	-254
out	-255
ure	-256
own	-257
ust	-258
wo	-259
ff	-260
land	-261
▁also	-262
irst	-263
▁their	-264
ide	-265
ign	-266
end	-267
ition	-268
▁4	-269
▁has	-270
ome	-271
▁ab	-272
per	-273
ould	-274
ire	-275
▁cont	-276
age	-277
ult	-278
ations	-279
▁cl	-280
▁:	-281
▁int	-282
.@	-283
▁@.@	-284
▁V	-285
ok	-286
ater	-287
▁its	-288
▁per	-289
man	-290
▁rec	-291
▁whe	-292
▁He	-293
pl	-294
▁ad	-295
▁but	-296
▁5	-297
ie	-298
ory	-299
▁first	-300
▁one	-301
hed	-302
▁Y	-303
▁play	-304
▁two	-305
uring	-306
▁Th	-307
ime	-308
▁bec	-309
▁res	-310
▁who	-311
ite	-312
▁been	-313
▁18	-314
ass	-315
▁have	-316
▁Al	-317
ence	-318
▁this	-319
▁off	-320
du	-321
▁man	-322
▁us	-323
▁all	-324
▁201	-325
▁en	-326
ally	-327
ough	-328
ond	-329
ry	-330
act	-331
,@	-332
mer	-333
ree	-334
▁@,@	-335
▁des	-336
ely	-337
ction	-338
ach	-339
▁comp	-340
oll	-341
▁ag	-342
lud	-343
▁sc	-344
▁after	-345
▁she	-346
▁part	-347
ke	-348
nder	-349
▁im	-350
▁dis	-351
over	-352
iz	-353
are	-354
▁other	-355
▁ser	-356
ile	-357
▁te	-358
▁j	-359
port	-360
▁It	-361
▁year	-362
▁over	-363
▁Un	-364
▁app	-365
ric	-366
ib	-367
int	-368
ces	-369
ors	-370
ited	-371
ubl	-372
ice	-373
ild	-374
ount	-375
ark	-376
round	-377
▁pre	-378
ang	-379
ced	-380
ound	-381
ade	-382
▁includ	-383
▁they	-384
▁ro	-385
▁out	-386
old	-387
▁comm	-388
▁up	-389
ember	-390
ep	-391
ents	-392
able	-393
ates	-394
ious	-395
ions	-396
ood	-397
ace	-398
wn	-399
▁work	-400
ason	-401
ock	-402
rough	-403
orm	-404
oy	-405
▁6	-406
▁ev	-407
ied	-408
▁rem	-409
▁time	-410
ath	-411
een	-412
ft	-413
ph	-414
ress	-415
ail	-416
ose	-417
tern	-418
▁more	-419
ey	-420
ance	-421
▁them	-422
▁ear	-423
▁into	-424
ings	-425
les	-426
▁ne	-427
reat	-428
▁8	-429
▁cons	-430
ased	-431
ron	-432
inal	-433
▁most	-434
▁7	-435
▁att	-436
▁under	-437
ix	-438
▁rel	-439
fer	-440
urn	-441
ase	-442
ng	-443
gan	-444
▁him	-445
▁Ar	-446
▁new	-447
▁Brit	-448
rib	-449
use	-450
ilm	-451
ict	-452
ind	-453
▁would	-454
etw	-455
▁only	-456
ities	-457
ered	-458
▁sec	-459
amp	-460
ward	-461
ual	-462
▁cent	-463
aw	-464
▁On	-465
▁bo	-466
▁tr	-467
vel	-468
ular	-469
hip	-470
▁fe	-471
ational	-472
▁during	-473
bum	-474
▁dec	-475
oth	-476
ren	-477
iss	-478
▁ass	-479
te	-480
ake	-481
ens	-482
one	-483
▁Z	-484
▁199	-485
▁char	-486
▁fl	-487
ved	-488
etween	-489
ons	-490
▁co	-491
▁kn	-492
▁act	-493
▁album	-494
▁season	-495
oss	-496
▁record	-497
ters	-498
▁ship	-499
▁9	-500
▁we	-501
▁num	-502
olog	-503
▁end	-504
hn	-505
▁Com	-506
▁Se	-507
▁00	-508
▁when	-509
▁about	-510
▁three	-511
way	-512
▁can	-513
▁film	-514
▁than	-515
▁writ	-516
▁publ	-517
orn	-518
▁Sh	-519
ollow	-520
▁produ	-521
tle	-522
▁again	-523
▁through	-524
▁spec	-525
pe	-526
▁reg	-527
▁ret	-528
▁between	-529
▁As	-530
orld	-531
▁pr	-532
ames	-533
ve	-534
▁bu	-535
ished	-536
az	-537
▁me	-538
▁later	-539
iew	-540
ted	-541
orth	-542
▁such	-543
▁sub	-544
ans	-545
▁Jo	-546
owe	-547
▁Re	-548
▁so	-549
▁air	-550
hes	-551
▁pe	-552
▁some	-553
▁ra	-554
▁000	-555
▁She	-556
▁form	-557
▁Wh	-558
▁am	-559
ick	-560
ener	-561
▁Whe	-562
ily	-563
▁four	-564
ob	-565
arn	-566
▁Le	-567
▁lar	-568
ern	-569
▁while	-570
▁British	-571
▁acc	-572
ating	-573
ten	-574
▁Mar	-575
▁sur	-576
iel	-577
▁17	-578
▁made	-579
ins	-580
▁qu	-581
oint	-582
▁mon	-583
▁do	-584
▁New	-585
▁being	-586
▁Bl	-587
ics	-588
ove	-589
▁inter	-590
▁0	-591
fore	-592
▁194	-593
ower	-594
▁ind	-595
▁pop	-596
overn	-597
ined	-598
▁there	-599
▁where	-600
ike	-601
▁ac	-602
▁rele	-603
▁supp	-604
▁number	-605
als	-606
ived	-607
other	-608
ts	-609
▁follow	-610
ific	-611
outh	-612
hel	-613
ink	-614
ince	-615
▁Ire	-616
▁Ireland	-617
aid	-618
ury	-619
ised	-620
▁both	-621
ject	-622
erson	-623
▁charac	-624
▁10	-625
ause	-626
▁United	-627
▁second	-628
ull	-629
usic	-630
▁def	-631
▁sy	-632
▁bl	-633
▁This	-634
▁god	-635
▁team	-636
ines	-637
though	-638
▁sever	-639
ole	-640
▁An	-641
▁no	-642
▁became	-643
▁Con	-644
▁main	-645
ug	-646
irect	-647
ars	-648
▁ent	-649
▁call	-650
▁hist	-651
▁many	-652
▁12	-653
▁high	-654
ck	-655
ral	-656
air	-657
▁city	-658
▁Ger	-659
ican	-660
▁years	-661
▁exp	-662
▁long	-663
▁well	-664
owever	-665
▁John	-666
iet	-667
lect	-668
▁perf	-669
▁rep	-670
ism	-671
▁Pol	-672
ool	-673
▁Is	-674
▁cre	-675
▁day	-676
der	-677
▁At	-678
▁loc	-679
▁ver	-680
▁remain	-681
rans	-682
▁inv	-683
▁tra	-684
▁German	-685
▁sign	-686
ste	-687
▁used	-688
▁offic	-689
▁before	-690
led	-691
▁Ind	-692
▁op	-693
▁mil	-694
ision	-695
▁pres	-696
▁then	-697
ife	-698
▁go	-699
▁pol	-700
elf	-701
▁Amer	-702
▁stud	-703
ros	-704
▁em	-705
ired	-706
▁met	-707
ute	-708
▁Cl	-709
▁dif	-710
ivers	-711
▁arch	-712
▁including	-713
ae	-714
▁Chr	-715
▁inf	-716
ordan	-717
▁Jordan	-718
ield	-719
ures	-720
▁war	-721
apt	-722
row	-723
son	-724
urch	-725
ty	-726
raft	-727
▁est	-728
up	-729
view	-730
ann	-731
▁bel	-732
▁game	-733
▁song	-734
ople	-735
▁lead	-736
▁known	-737
▁May	-738
▁desc	-739
▁11	-740
▁resp	-741
▁Comm	-742
▁198	-743
▁All	-744
▁imp	-745
imes	-746
▁add	-747
▁oper	-748
▁%	-749
ank	-750
ful	-751
rol	-752
▁ob	-753
▁sm	-754
▁car	-755
▁against	-756
overnment	-757
ale	-758
chool	-759
my	-760
▁dep	-761
oman	-762
▁began	-763
oot	-764
▁York	-765
emb	-766
ise	-767
roup	-768
stru	-769
ists	-770
▁rece	-771
▁trans	-772
▁several	-773
ided	-774
▁After	-775
▁these	-776
ather	-777
velop	-778
▁could	-779
io	-780
ident	-781
ually	-782
aj	-783
ony	-784
▁col	-785
▁mov	-786
▁set	-787
its	-788
▁War	-789
ially	-790
ober	-791
▁prov	-792
▁sing	-793
▁Ad	-794
▁bro	-795
▁own	-796
▁pos	-797
▁ter	-798
ccess	-799
▁direct	-800
gy	-801
▁—	-802
▁disc	-803
ural	-804
rench	-805
▁conc	-806
▁mill	-807
▁orig	-808
▁series	-809
▁any	-810
▁Christ	-811
▁gr	-812
▁min	-813
ek	-814
ert	-815
aking	-816
ments	-817
▁crit	-818
ier	-819
ional	-820
▁found	-821
▁French	-822
▁character	-823
amed	-824
ared	-825
▁you	-826
▁said	-827
▁count	-828
vent	-829
▁show	-830
▁/	-831
▁De	-832
▁art	-833
▁fam	-834
au	-835
aged	-836
ized	-837
▁193	-838
ement	-839
eler	-840
▁book	-841
▁people	-842
pr	-843
▁dam	-844
ative	-845
▁contin	-846
▁describ	-847
osed	-848
▁Jan	-849
▁return	-850
▁dist	-851
hou	-852
▁near	-853
▁$	-854
▁six	-855
▁music	-856
alv	-857
cept	-858
▁bat	-859
▁fin	-860
▁Wheeler	-861
ued	-862
▁ty	-863
▁ext	-864
▁var	-865
▁Town	-866
▁because	-867
ues	-868
▁ph	-869
▁century	-870
▁II	-871
▁develop	-872
▁success	-873
▁Fe	-874
▁sl	-875
▁ant	-876
▁15	-877
▁191	-878
▁did	-879
▁div	-880
▁gu	-881
ides	-882
▁Rac	-883
itary	-884
▁back	-885
▁care	-886
aeolog	-887
▁comple	-888
▁feat	-889
▁same	-890
ording	-891
▁World	-892
▁public	-893
▁Ge	-894
gest	-895
ning	-896
▁eff	-897
▁hum	-898
▁may	-899
eston	-900
▁open	-901
▁partic	-902
ball	-903
▁win	-904
▁dest	-905
ys	-906
med	-907
ague	-908
ured	-909
▁For	-910
▁ref	-911
▁unt	-912
▁government	-913
ilt	-914
oun	-915
uary	-916
▁prom	-917
▁ep	-918
ross	-919
▁Rachel	-920
▁called	-921
enn	-922
riend	-923
▁each	-924
▁early	-925
▁States	-926
▁design	-927
ird	-928
ored	-929
▁state	-930
ash	-931
ram	-932
▁life	-933
▁gener	-934
▁point	-935
ah	-936
uch	-937
ven	-938
ting	-939
▁Fran	-940
▁report	-941
▁Q	-942
erv	-943
▁five	-944
get	-945
▁serv	-946
▁group	-947
▁ships	-948
ged	-949
▁sent	-950
▁class	-951
▁command	-952
ex	-953
roy	-954
uro	-955
▁Pr	-956
ible	-957
▁And	-958
▁White	-959
▁until	-960
▁million	-961
ble	-962
▁Galv	-963
▁like	-964
ically	-965
▁consid	-966
▁person	-967
▁Galveston	-968
ook	-969
uth	-970
eter	-971
▁Col	-972
▁small	-973
ton	-974
▁br	-975
▁gun	-976
▁occ	-977
iation	-978
▁13	-979
▁ins	-980
▁along	-981
▁support	-982
und	-983
leet	-984
▁giv	-985
▁use	-986
▁name	-987
une	-988
▁ann	-989
▁area	-990
▁Roman	-991
▁American	-992
▁192	-993
▁Can	-994
ission	-995
▁16	-996
ajor	-997
omin	-998
▁build	-999
▁although	-1000
▁Eng	-1001
▁ele	-1002
▁mat	-1003
ution	-1004
▁released	-1005
▁Sc	-1006
▁result	-1007
▁However	-1008
aced	-1009
▁eng	-1010
ences	-1011
▁around	-1012
▁played	-1013
▁though	-1014
avy	-1015
▁run	-1016
▁Euro	-1017
▁start	-1018
▁differ	-1019
▁January	-1020
alk	-1021
ility	-1022
▁gods	-1023
▁since	-1024
▁following	-1025
any	-1026
ages	-1027
ange	-1028
raph	-1029
▁down	-1030
▁Europe	-1031
▁hel	-1032
▁str	-1033
ended	-1034
stein	-1035
ians	-1036
used	-1037
ected	-1038
▁line	-1039
▁port	-1040
▁military	-1041
ane	-1042
▁30	-1043
▁Be	-1044
▁ed	-1045
▁took	-1046
aim	-1047
▁Br	-1048
▁US	-1049
▁Nov	-1050
▁adv	-1051
▁dem	-1052
ately	-1053
▁cast	-1054
▁Black	-1055
▁child	-1056
ulation	-1057
▁school	-1058
▁Mon	-1059
▁bas	-1060
▁iss	-1061
▁head	-1062
stit	-1063
▁197	-1064
▁ever	-1065
▁list	-1066
▁Oct	-1067
▁King	-1068
▁story	-1069
uc	-1070
ital	-1071
▁They	-1072
▁island	-1073
▁exc	-1074
▁mod	-1075
▁appear	-1076
▁October	-1077
▁described	-1078
▁[	-1079
▁]	-1080
els	-1081
elt	-1082
iod	-1083
▁received	-1084
ient	-1085
▁bre	-1086
▁med	-1087
ively	-1088
orman	-1089
▁Sept	-1090
▁even	-1091
▁hand	-1092
▁those	-1093
▁Pro	-1094
aving	-1095
craft	-1096
ining	-1097
▁June	-1098
▁position	-1099
ms	-1100
abl	-1101
uss	-1102
▁stru	-1103
▁based	-1104
▁history	-1105
▁September	-1106
▁25	-1107
▁195	-1108
wards	-1109
▁incre	-1110
▁large	-1111
▁world	-1112
▁During	-1113
iversity	-1114
▁control	-1115
ium	-1116
▁Aug	-1117
ained	-1118
ister	-1119
▁conf	-1120
▁cult	-1121
▁land	-1122
▁August	-1123
▁another	-1124
ays	-1125
ley	-1126
▁km	-1127
isod	-1128
▁Nic	-1129
▁will	-1130
▁Ross	-1131
▁There	-1132
▁named	-1133
▁power	-1134
▁stand	-1135
▁Polish	-1136
▁episod	-1137
pril	-1138
▁sit	-1139
▁prev	-1140
▁prot	-1141
▁April	-1142
▁single	-1143
▁mar	-1144
▁sim	-1145
▁expl	-1146
▁games	-1147
xt	-1148
emp	-1149
▁Ir	-1150
▁2010	-1151
▁prof	-1152
▁belie	-1153
yn	-1154
▁We	-1155
▁dra	-1156
inkel	-1157
▁North	-1158
▁repres	-1159
▁destroy	-1160
▁November	-1161
▁included	-1162
..	-1163
cy	-1164
▁Or	-1165
▁av	-1166
▁men	-1167
▁Aust	-1168
▁init	-1169
▁career	-1170
send	-1171
ittle	-1172
▁major	-1173
▁Finkel	-1174
▁constru	-1175
▁Townsend	-1176
▁Finkelstein	-1177
iam	-1178
yle	-1179
▁Sp	-1180
gypt	-1181
▁...	-1182
▁Egypt	-1183
▁Church	-1184
▁period	-1185
▁es	-1186
arch	-1187
▁home	-1188
▁last	-1189
▁built	-1190
▁species	-1191
ait	-1192
ets	-1193
aven	-1194
ison	-1195
▁appro	-1196
▁Nicole	-1197
▁establ	-1198
▁Command	-1199
ner	-1200
orp	-1201
ret	-1202
rum	-1203
▁if	-1204
ants	-1205
▁opp	-1206
ently	-1207
imony	-1208
▁rest	-1209
▁organ	-1210
lu	-1211
read	-1212
stem	-1213
▁old	-1214
ption	-1215
▁camp	-1216
▁left	-1217
ives	-1218
▁196	-1219
▁much	-1220
▁Irish	-1221
▁great	-1222
▁archaeolog	-1223
ai	-1224
▁Dec	-1225
▁tit	-1226
▁typ	-1227
▁pass	-1228
▁review	-1229
▁previous	-1230
ax	-1231
ik	-1232
▁Air	-1233
ograph	-1234
▁addition	-1235
▁sk	-1236
empt	-1237
iety	-1238
ival	-1239
omet	-1240
ouse	-1241
ract	-1242
ights	-1243
▁West	-1244
▁help	-1245
▁among	-1246
▁often	-1247
▁order	-1248
▁place	-1249
ll	-1250
acing	-1251
ublic	-1252
▁best	-1253
▁requ	-1254
▁Ph	-1255
▁my	-1256
ards	-1257
▁Acc	-1258
ified	-1259
▁site	-1260
▁short	-1261
ves	-1262
iver	-1263
▁Zhou	-1264
▁human	-1265
▁within	-1266
ef	-1267
▁No	-1268
▁Pl	-1269
line	-1270
ried	-1271
▁His	-1272
▁soc	-1273
aster	-1274
▁auth	-1275
▁still	-1276
▁National	-1277
ger	-1278
▁hal	-1279
▁turn	-1280
▁week	-1281
▁south	-1282
▁aircraft	-1283
arl	-1284
omb	-1285
▁14	-1286
▁deb	-1287
arnia	-1288
stant	-1289
▁2007	-1290
▁trad	-1291
urther	-1292
▁allow	-1293
▁Sarnia	-1294
ats	-1295
off	-1296
lear	-1297
side	-1298
▁now	-1299
▁2006	-1300
▁just	-1301
▁import	-1302
▁University	-1303
yl	-1304
ica	-1305
▁Fey	-1306
▁won	-1307
▁what	-1308
▁Canad	-1309
▁final	-1310
▁original	-1311
ech	-1312
ina	-1313
osp	-1314
tal	-1315
▁tw	-1316
ilar	-1317
▁Count	-1318
▁family	-1319
▁attempt	-1320
▁popular	-1321
ature	-1322
▁2008	-1323
▁Port	-1324
▁real	-1325
orther	-1326
▁According	-1327
con	-1328
pped	-1329
quad	-1330
rote	-1331
▁equ	-1332
ented	-1333
▁repl	-1334
▁event	-1335
orthern	-1336
isc	-1337
aves	-1338
▁due	-1339
▁wrote	-1340
▁system	-1341
▁published	-1342
▁particular	-1343
dom	-1344
▁led	-1345
▁top	-1346
ached	-1347
▁City	-1348
▁fleet	-1349
▁Ju	-1350
▁cap	-1351
▁2013	-1352
▁prog	-1353
▁very	-1354
embers	-1355
▁histor	-1356
▁episode	-1357
▁December	-1358
ots	-1359
cial	-1360
ivil	-1361
▁Yue	-1362
▁gold	-1363
▁make	-1364
▁perform	-1365
▁different	-1366
iqu	-1367
▁Gu	-1368
▁er	-1369
self	-1370
▁month	-1371
ung	-1372
oard	-1373
▁gre	-1374
▁influ	-1375
▁considered	-1376
▁2009	-1377
▁mark	-1378
ground	-1379
vision	-1380
▁death	-1381
▁stated	-1382
hest	-1383
▁Jack	-1384
riends	-1385
▁relations	-1386
▁23	-1387
ness	-1388
▁Her	-1389
▁2011	-1390
▁away	-1391
▁capt	-1392
▁fire	-1393
▁late	-1394
▁poss	-1395
▁March	-1396
▁project	-1397
▁Me	-1398
▁NB	-1399
iers	-1400
▁spe	-1401
▁sug	-1402
▁tak	-1403
iving	-1404
▁Gener	-1405
▁third	-1406
▁commun	-1407
hen	-1408
▁Ant	-1409
▁Rep	-1410
▁det	-1411
field	-1412
▁Army	-1413
▁post	-1414
ternational	-1415
▁population	-1416
mar	-1417
ody	-1418
ford	-1419
ices	-1420
oyal	-1421
▁vis	-1422
▁Will	-1423
estern	-1424
▁north	-1425
▁become	-1426
ox	-1427
amb	-1428
▁24	-1429
▁Ex	-1430
▁ft	-1431
abor	-1432
ideo	-1433
▁Bro	-1434
▁cour	-1435
▁foot	-1436
▁less	-1437
▁prop	-1438
▁side	-1439
▁invol	-1440
▁members	-1441
▁suggest	-1442
by	-1443
app	-1444
▁Ne	-1445
▁came	-1446
▁James	-1447
▁given	-1448
▁local	-1449
▁Although	-1450
uk	-1451
urt	-1452
ched	-1453
ling	-1454
▁Pal	-1455
▁You	-1456
▁few	-1457
▁ten	-1458
▁With	-1459
▁surv	-1460
▁track	-1461
▁General	-1462
▁profess	-1463
par	-1464
▁Hait	-1465
▁half	-1466
▁tele	-1467
▁activ	-1468
▁attack	-1469
inc	-1470
mas	-1471
▁Im	-1472
ones	-1473
urre	-1474
athan	-1475
ument	-1476
ention	-1477
▁polit	-1478
▁times	-1479
▁young	-1480
▁author	-1481
▁should	-1482
▁further	-1483
▁recorded	-1484
bs	-1485
rop	-1486
rick	-1487
uted	-1488
▁eight	-1489
▁exper	-1490
▁water	-1491
▁County	-1492
ief	-1493
▁Am	-1494
▁ca	-1495
▁el	-1496
omen	-1497
▁comb	-1498
▁inst	-1499
astern	-1500
quadron	-1501
▁former	-1502
▁without	-1503
▁returned	-1504
▁performan	-1505
▁throughout	-1506
▁relationship	-1507
ize	-1508
▁21	-1509
▁Fl	-1510
aces	-1511
pite	-1512
▁pat	-1513
ering	-1514
ising	-1515
▁star	-1516
ctions	-1517
ection	-1518
▁earth	-1519
▁level	-1520
ardinal	-1521
▁produced	-1522
▁Christmas	-1523
ior	-1524
ploy	-1525
rael	-1526
▁beh	-1527
▁pur	-1528
▁need	-1529
▁role	-1530
▁South	-1531
▁cover	-1532
▁every	-1533
▁Israel	-1534
▁country	-1535
osa	-1536
ales	-1537
ches	-1538
ects	-1539
▁beg	-1540
▁far	-1541
ances	-1542
ither	-1543
ondon	-1544
▁doll	-1545
▁east	-1546
▁kill	-1547
▁vers	-1548
ration	-1549
▁claim	-1550
▁moved	-1551
▁noted	-1552
▁react	-1553
▁London	-1554
▁Britain	-1555
▁written	-1556
▁building	-1557
▁Car	-1558
▁che	-1559
▁mid	-1560
▁conv	-1561
sp	-1562
▁By	-1563
▁2012	-1564
▁Cent	-1565
▁July	-1566
▁When	-1567
▁take	-1568
ws	-1569
bru	-1570
irc	-1571
▁hy	-1572
angu	-1573
▁way	-1574
▁sold	-1575
▁stre	-1576
▁style	-1577
▁damaged	-1578
▁similar	-1579
min	-1580
▁Em	-1581
▁jo	-1582
▁One	-1583
▁arr	-1584
▁lim	-1585
▁put	-1586
ience	-1587
useum	-1588
▁These	-1589
▁Kingdom	-1590
▁however	-1591
▁official	-1592
▁reported	-1593
eng	-1594
val	-1595
▁GA	-1596
cted	-1597
idge	-1598
olic	-1599
vers	-1600
▁100	-1601
▁Des	-1602
▁Sec	-1603
▁nov	-1604
▁tri	-1605
▁forces	-1606
▁continued	-1607
▁sw	-1608
ains	-1609
▁leg	-1610
duced	-1611
▁days	-1612
▁fore	-1613
bruary	-1614
lected	-1615
▁League	-1616
▁having	-1617
▁strong	-1618
▁February	-1619
oor	-1620
▁50	-1621
augh	-1622
lish	-1623
ring	-1624
▁Rec	-1625
aying	-1626
▁Cath	-1627
▁fact	-1628
▁held	-1629
▁common	-1630
▁deities	-1631
▁include	-1632
▁remained	-1633
▁gl	-1634
alth	-1635
oted	-1636
▁Hol	-1637
▁Jew	-1638
▁fre	-1639
▁pri	-1640
isted	-1641
▁west	-1642
▁chart	-1643
▁right	-1644
▁somet	-1645
▁English	-1646
▁various	-1647
▁children	-1648
▁important	-1649
ery	-1650
ense	-1651
▁Min	-1652
▁Austral	-1653
▁antimony	-1654
ael	-1655
▁Mat	-1656
▁del	-1657
▁mag	-1658
ories	-1659
▁Lock	-1660
▁Navy	-1661
▁gave	-1662
▁hour	-1663
itions	-1664
▁Royal	-1665
▁langu	-1666
▁relig	-1667
▁signific	-1668
umb	-1669
▁Ear	-1670
▁dou	-1671
▁Hist	-1672
▁earl	-1673
▁feet	-1674
▁next	-1675
▁seen	-1676
▁stat	-1677
▁town	-1678
ferred	-1679
▁Haven	-1680
▁title	-1681
▁battle	-1682
▁release	-1683
▁Northern	-1684
sh	-1685
ele	-1686
ges	-1687
ened	-1688
▁Mad	-1689
▁ord	-1690
▁club	-1691
▁miss	-1692
▁suff	-1693
▁wind	-1694
▁Nathan	-1695
▁player	-1696
aul	-1697
irl	-1698
iter	-1699
ront	-1700
sequ	-1701
▁Ass	-1702
▁gen	-1703
▁sex	-1704
stead	-1705
▁damage	-1706
▁Republic	-1707
▁production	-1708
▁successful	-1709
ML	-1710
com	-1711
key	-1712
▁low	-1713
atory	-1714
▁Mark	-1715
▁range	-1716
▁total	-1717
▁critic	-1718
▁located	-1719
▁national	-1720
▁operations	-1721
cer	-1722
iol	-1723
▁Af	-1724
aper	-1725
illo	-1726
ourn	-1727
▁Tru	-1728
▁hig	-1729
▁Geor	-1730
▁circ	-1731
▁good	-1732
▁father	-1733
▁others	-1734
▁construction	-1735
ask	-1736
emy	-1737
ott	-1738
▁Med	-1739
▁bar	-1740
igned	-1741
iness	-1742
▁never	-1743
▁using	-1744
▁himself	-1745
▁Cardinal	-1746
▁developed	-1747
▁established	-1748
reg	-1749
▁22	-1750
echn	-1751
▁Man	-1752
▁arm	-1753
▁fem	-1754
▁fig	-1755
▁obs	-1756
oring	-1757
▁fail	-1758
▁plan	-1759
▁wall	-1760
▁assoc	-1761
▁special	-1762
▁X	-1763
fic	-1764
▁Ed	-1765
▁cr	-1766
▁la	-1767
ably	-1768
eder	-1769
▁ste	-1770
enced	-1771
▁Rout	-1772
▁guns	-1773
▁want	-1774
▁India	-1775
imately	-1776
▁scored	-1777
▁tradition	-1778
ene	-1779
iva	-1780
▁En	-1781
ords	-1782
rang	-1783
▁AML	-1784
▁Red	-1785
▁aff	-1786
▁too	-1787
▁appe	-1788
▁find	-1789
▁view	-1790
ensive	-1791
▁novel	-1792
▁Island	-1793
▁Constant	-1794
ald	-1795
ape	-1796
ope	-1797
▁26	-1798
▁28	-1799
▁186	-1800
▁law	-1801
ental	-1802
▁Arch	-1803
▁base	-1804
▁felt	-1805
▁goal	-1806
▁read	-1807
▁excav	-1808
▁least	-1809
MS	-1810
▁!	-1811
cing	-1812
ivid	-1813
▁NBA	-1814
▁val	-1815
▁Shiva	-1816
▁intro	-1817
▁press	-1818
▁origin	-1819
▁writing	-1820
▁interest	-1821
▁represent	-1822
be	-1823
cl	-1824
▁’	-1825
ops	-1826
ple	-1827
ulf	-1828
▁Ac	-1829
rict	-1830
▁par	-1831
▁rev	-1832
pping	-1833
▁does	-1834
▁draw	-1835
▁Afric	-1836
▁depict	-1837
▁ground	-1838
▁created	-1839
▁present	-1840
▁reached	-1841
▁spacing	-1842
▁television	-1843
af	-1844
co	-1845
van	-1846
▁mm	-1847
▁ide	-1848
itted	-1849
▁Song	-1850
▁Wild	-1851
▁decl	-1852
▁rank	-1853
▁sour	-1854
▁Route	-1855
▁estim	-1856
▁round	-1857
▁sound	-1858
▁accept	-1859
▁discover	-1860
▁significant	-1861
▁UK	-1862
▁God	-1863
▁fav	-1864
iated	-1865
▁Russ	-1866
▁agre	-1867
▁viol	-1868
▁Great	-1869
▁award	-1870
▁manag	-1871
▁super	-1872
ference	-1873
▁modern	-1874
▁players	-1875
▁training	-1876
hib	-1877
ico	-1878
itz	-1879
▁40	-1880
ayer	-1881
▁189	-1882
▁sol	-1883
▁tre	-1884
jillo	-1885
▁Char	-1886
▁coll	-1887
▁fund	-1888
▁once	-1889
▁rock	-1890
gether	-1891
ishing	-1892
▁accom	-1893
▁light	-1894
ination	-1895
▁individ	-1896
▁service	-1897
▁Trujillo	-1898
▁together	-1899
▁&	-1900
▁z	-1901
▁31	-1902
▁Mc	-1903
cher	-1904
lant	-1905
ving	-1906
▁dev	-1907
▁how	-1908
▁mix	-1909
aching	-1910
▁While	-1911
▁chang	-1912
▁colle	-1913
▁ident	-1914
▁seven	-1915
▁Jewish	-1916
▁commer	-1917
▁effort	-1918
▁characters	-1919
▁Constantine	-1920
ler	-1921
▁Tr	-1922
atic	-1923
ator	-1924
cent	-1925
ster	-1926
▁187	-1927
▁Pri	-1928
▁cut	-1929
▁fac	-1930
▁Mich	-1931
▁Rock	-1932
▁able	-1933
▁full	-1934
idence	-1935
▁issue	-1936
▁entire	-1937
▁points	-1938
▁respect	-1939
▁Catholic	-1940
ani	-1941
ese	-1942
oid	-1943
onn	-1944
reen	-1945
▁Div	-1946
▁Lad	-1947
▁fun	-1948
▁sym	-1949
istic	-1950
▁grow	-1951
▁hold	-1952
▁move	-1953
▁prim	-1954
atural	-1955
ertain	-1956
ressed	-1957
▁field	-1958
▁video	-1959
▁performance	-1960
ria	-1961
▁NH	-1962
▁dr	-1963
ency	-1964
▁188	-1965
▁Sov	-1966
▁age	-1967
▁cou	-1968
▁get	-1969
iting	-1970
▁band	-1971
▁Union	-1972
▁civil	-1973
▁songs	-1974
▁Little	-1975
▁Soviet	-1976
▁advant	-1977
▁church	-1978
▁making	-1979
▁appoint	-1980
▁director	-1981
▁political	-1982
br	-1983
ne	-1984
ago	-1985
aly	-1986
day	-1987
edy	-1988
▁Gr	-1989
▁ke	-1990
aint	-1991
akes	-1992
chol	-1993
iron	-1994
▁esc	-1995
iston	-1996
▁2003	-1997
▁aver	-1998
▁deal	-1999
▁loss	-2000
ficult	-2001
▁Early	-2002
▁First	-2003
▁Music	-2004
▁State	-2005
▁becom	-2006
▁mater	-2007
▁occup	-2008
▁taken	-2009
▁Atlant	-2010
▁either	-2011
▁league	-2012
▁general	-2013
rak	-2014
▁27	-2015
most	-2016
▁Bar	-2017
▁arg	-2018
▁died	-2019
▁rese	-2020
▁sail	-2021
▁force	-2022
▁impro	-2023
▁announ	-2024
▁mother	-2025
▁worked	-2026
▁language	-2027
▁provided	-2028
▁eventually	-2029
▁individual	-2030
ez	-2031
rag	-2032
rem	-2033
rew	-2034
ample	-2035
ranch	-2036
▁Bill	-2037
▁conn	-2038
▁lost	-2039
▁went	-2040
▁areas	-2041
▁break	-2042
▁close	-2043
▁miles	-2044
▁pract	-2045
ization	-2046
▁Canada	-2047
▁dollar	-2048
▁version	-2049
▁Anderson	-2050
▁difficult	-2051
orr	-2052
sen	-2053
▁Su	-2054
▁Sw	-2055
ells	-2056
iber	-2057
▁Bat	-2058
▁Har	-2059
▁Pet	-2060
▁Tex	-2061
▁pil	-2062
conom	-2063
lying	-2064
ustry	-2065
▁Best	-2066
▁Park	-2067
▁Some	-2068
▁born	-2069
▁free	-2070
▁insp	-2071
▁proc	-2072
elling	-2073
urrent	-2074
▁creat	-2075
▁storm	-2076
stitute	-2077
▁School	-2078
▁Egyptian	-2079
▁followed	-2080
zz	-2081
acy	-2082
aff	-2083
aps	-2084
oad	-2085
ogn	-2086
medi	-2087
utes	-2088
▁Ang	-2089
▁Dav	-2090
▁Two	-2091
▁aud	-2092
▁har	-2093
▁rad	-2094
▁tow	-2095
itive	-2096
ology	-2097
osing	-2098
▁treat	-2099
▁France	-2100
▁castle	-2101
▁formed	-2102
▁leading	-2103
▁European	-2104
▁officers	-2105
▁particularly	-2106
AA	-2107
ases	-2108
ries	-2109
tain	-2110
ying	-2111
▁Sap	-2112
▁bus	-2113
▁cru	-2114
▁sou	-2115
▁tro	-2116
ality	-2117
▁cond	-2118
▁live	-2119
▁look	-2120
▁techn	-2121
▁white	-2122
▁women	-2123
▁action	-2124
▁signed	-2125
▁America	-2126
▁William	-2127
▁Squadron	-2128
▁performed	-2129
ham	-2130
▁Gl	-2131
▁Pe	-2132
ecut	-2133
ores	-2134
▁Che	-2135
arian	-2136
▁2015	-2137
▁Love	-2138
▁body	-2139
▁love	-2140
▁test	-2141
▁occur	-2142
ography	-2143
▁Indian	-2144
▁double	-2145
▁effect	-2146
▁recogn	-2147
▁served	-2148
▁Saprang	-2149
▁respons	-2150
▁development	-2151
ado	-2152
mir	-2153
▁Er	-2154
ples	-2155
ukem	-2156
▁190	-2157
▁Act	-2158
▁Par	-2159
▁ask	-2160
▁den	-2161
atter	-2162
empor	-2163
osaur	-2164
thern	-2165
▁2014	-2166
▁Gold	-2167
▁above	-2168
▁avail	-2169
▁employ	-2170
▁little	-2171
▁social	-2172
▁taking	-2173
▁example	-2174
▁material	-2175
▁advantage	-2176
▁professional	-2177
▁?	-2178
hod	-2179
iec	-2180
aval	-2181
ways	-2182
▁Que	-2183
▁hom	-2184
board	-2185
ecess	-2186
▁Penn	-2187
▁educ	-2188
▁raid	-2189
▁Haiti	-2190
▁Other	-2191
▁Wilde	-2192
▁broad	-2193
▁coast	-2194
▁elect	-2195
▁match	-2196
▁events	-2197
▁forced	-2198
▁instead	-2199
▁largest	-2200
▁destroyed	-2201
▁religious	-2202
▁commercial	-2203
gra	-2204
▁45	-2205
▁So	-2206
emor	-2207
ille	-2208
▁Mag	-2209
▁Res	-2210
▁bet	-2211
▁fif	-2212
▁pra	-2213
▁2005	-2214
▁Blue	-2215
▁Camp	-2216
▁Wood	-2217
▁corn	-2218
▁lack	-2219
▁term	-2220
▁upon	-2221
▁plann	-2222
▁member	-2223
▁Western	-2224
▁culture	-2225
▁earlier	-2226
▁program	-2227
▁schools	-2228
▁thought	-2229
dle	-2230
ude	-2231
▁cal	-2232
▁red	-2233
▁see	-2234
aries	-2235
itect	-2236
▁East	-2237
▁vict	-2238
rought	-2239
uation	-2240
▁Texas	-2241
ilities	-2242
▁George	-2243
▁across	-2244
▁behind	-2245
▁compet	-2246
▁leukem	-2247
▁police	-2248
▁writer	-2249
▁central	-2250
▁playing	-2251
▁started	-2252
▁announced	-2253
eh	-2254
ush	-2255
▁HMS	-2256
arent	-2257
ators	-2258
ought	-2259
ylvan	-2260
▁Cole	-2261
▁crew	-2262
▁defe	-2263
▁meet	-2264
▁phys	-2265
▁tour	-2266
icated	-2267
▁joined	-2268
▁struct	-2269
▁current	-2270
▁earthqu	-2271
▁regular	-2272
▁remains	-2273
▁serious	-2274
▁contract	-2275
ino	-2276
ont	-2277
tic	-2278
▁Cr	-2279
▁To	-2280
less	-2281
rown	-2282
▁Naz	-2283
▁ill	-2284
▁wat	-2285
epend	-2286
▁Bull	-2287
▁Long	-2288
▁whom	-2289
ential	-2290
▁Rober	-2291
▁black	-2292
▁schol	-2293
olution	-2294
▁econom	-2295
▁female	-2296
▁England	-2297
▁opening	-2298
▁initially	-2299
▁Ab	-2300
chie	-2301
hips	-2302
uter	-2303
▁Off	-2304
▁Soc	-2305
▁cra	-2306
▁son	-2307
▁sum	-2308
azine	-2309
ockey	-2310
rance	-2311
ronic	-2312
urric	-2313
▁Pres	-2314
▁dock	-2315
▁grad	-2316
▁neut	-2317
▁reve	-2318
uments	-2319
▁fight	-2320
▁flood	-2321
▁house	-2322
▁space	-2323
ampions	-2324
artment	-2325
▁proper	-2326
▁struck	-2327
▁Aniston	-2328
▁Friends	-2329
▁brought	-2330
▁outside	-2331
▁designed	-2332
▁Christian	-2333
▁completed	-2334
▁interview	-2335
▁transport	-2336
ma	-2337
sk	-2338
cil	-2339
apan	-2340
ript	-2341
▁Cat	-2342
▁Dep	-2343
▁III	-2344
▁Pat	-2345
▁cop	-2346
▁non	-2347
▁tom	-2348
▁host	-2349
▁past	-2350
▁achie	-2351
▁night	-2352
▁object	-2353
▁states	-2354
▁decided	-2355
▁sentence	-2356
▁International	-2357
opp	-2358
ote	-2359
vin	-2360
▁Sy	-2361
ault	-2362
graf	-2363
ises	-2364
play	-2365
▁Reg	-2366
▁reb	-2367
▁sea	-2368
ament	-2369
ander	-2370
iding	-2371
ivate	-2372
▁Acad	-2373
▁Furt	-2374
▁pers	-2375
ending	-2376
▁films	-2377
▁separ	-2378
▁Furtado	-2379
▁Markgraf	-2380
▁appeared	-2381
▁assigned	-2382
▁football	-2383
▁particip	-2384
▁available	-2385
▁36	-2386
elli	-2387
olay	-2388
ream	-2389
rest	-2390
▁Ali	-2391
▁NHL	-2392
▁cor	-2393
▁lik	-2394
▁mor	-2395
▁ren	-2396
▁tem	-2397
▁voc	-2398
▁vol	-2399
elled	-2400
house	-2401
rated	-2402
▁Mont	-2403
▁Phil	-2404
▁clos	-2405
▁earn	-2406
▁David	-2407
▁Japan	-2408
▁River	-2409
▁clear	-2410
▁draft	-2411
▁mount	-2412
▁stone	-2413
▁weeks	-2414
ecutive	-2415
ylvania	-2416
▁Sholay	-2417
▁engine	-2418
▁reason	-2419
▁critics	-2420
▁working	-2421
▁features	-2422
▁involved	-2423
▁community	-2424
▁Archaeolog	-2425
▁earthquake	-2426
azz	-2427
ero	-2428
oph	-2429
▁Ag	-2430
aled	-2431
pper	-2432
wood	-2433
▁don	-2434
▁mer	-2435
▁wid	-2436
ounds	-2437
▁2004	-2438
▁Krak	-2439
▁Most	-2440
▁Oper	-2441
▁fict	-2442
▁know	-2443
▁mean	-2444
▁nine	-2445
▁Domin	-2446
▁Penns	-2447
▁Michael	-2448
▁percent	-2449
▁process	-2450
▁research	-2451
▁appointed	-2452
▁estimated	-2453
▁sometimes	-2454
▁originally	-2455
ara	-2456
▁29	-2457
▁Bu	-2458
▁Co	-2459
▁Qu	-2460
▁Sb	-2461
aton	-2462
ogue	-2463
▁Bel	-2464
▁Cre	-2465
▁aer	-2466
▁fru	-2467
▁pot	-2468
▁rul	-2469
asing	-2470
ector	-2471
eding	-2472
erous	-2473
ormal	-2474
▁1990	-2475
▁From	-2476
▁Serv	-2477
▁adop	-2478
▁Assoc	-2479
▁learn	-2480
▁study	-2481
▁twent	-2482
▁almost	-2483
▁troops	-2484
▁comment	-2485
▁highest	-2486
ification	-2487
▁Australia	-2488
▁architect	-2489
▁increased	-2490
aby	-2491
▁El	-2492
▁Sl	-2493
▁mi	-2494
▁185	-2495
▁But	-2496
▁Cup	-2497
▁Per	-2498
▁aid	-2499
▁box	-2500
▁ens	-2501
▁syn	-2502
emple	-2503
miral	-2504
usion	-2505
▁Many	-2506
▁Paul	-2507
▁Vict	-2508
▁army	-2509
▁case	-2510
▁hosp	-2511
▁laun	-2512
ournal	-2513
▁prior	-2514
▁Columb	-2515
▁caused	-2516
▁opened	-2517
urricane	-2518
▁limited	-2519
▁station	-2520
sequently	-2521
▁students	-2522
▁surround	-2523
▁35	-2524
aret	-2525
enth	-2526
here	-2527
▁500	-2528
▁Ale	-2529
▁abs	-2530
▁bur	-2531
▁Capt	-2532
▁Film	-2533
▁Hell	-2534
▁Rich	-2535
▁Thom	-2536
▁come	-2537
▁prob	-2538
lement	-2539
ulated	-2540
▁Eaton	-2541
▁House	-2542
▁condu	-2543
▁demon	-2544
▁minor	-2545
ibility	-2546
▁Awards	-2547
▁Robert	-2548
▁region	-2549
▁History	-2550
▁despite	-2551
▁featured	-2552
▁Institute	-2553
ze	-2554
anz	-2555
den	-2556
olf	-2557
pec	-2558
ray	-2559
urb	-2560
▁60	-2561
▁ru	-2562
alky	-2563
ateg	-2564
atin	-2565
▁Bay	-2566
odies	-2567
orpor	-2568
rying	-2569
ynast	-2570
▁bomb	-2571
▁emer	-2572
▁piec	-2573
▁stri	-2574
▁type	-2575
▁wife	-2576
ements	-2577
ington	-2578
▁Colle	-2579
▁begin	-2580
▁block	-2581
▁debut	-2582
▁goals	-2583
▁remov	-2584
▁shown	-2585
▁units	-2586
▁Palest	-2587
▁Second	-2588
▁Victor	-2589
▁convoy	-2590
▁immedi	-2591
▁museum	-2592
▁threat	-2593
ormation	-2594
▁carried	-2595
▁concern	-2596
▁eastern	-2597
▁introduced	-2598
▁previously	-2599
ken	-2600
let	-2601
rab	-2602
rap	-2603
sel	-2604
▁cm	-2605
▁di	-2606
gely	-2607
hews	-2608
ston	-2609
▁Def	-2610
▁mot	-2611
▁Fern	-2612
▁Vill	-2613
▁Year	-2614
▁fell	-2615
▁pred	-2616
etball	-2617
isions	-2618
▁Under	-2619
▁adapt	-2620
▁added	-2621
▁deter	-2622
▁might	-2623
▁names	-2624
▁think	-2625
▁agreed	-2626
▁divine	-2627
▁groups	-2628
▁months	-2629
▁nearly	-2630
▁proble	-2631
▁search	-2632
▁sexual	-2633
▁capital	-2634
▁believed	-2635
▁evidence	-2636
▁according	-2637
▁recording	-2638
▁activities	-2639
▁additional	-2640
▁Pennsylvania	-2641
ny	-2642
gal	-2643
▁Go	-2644
▁Je	-2645
▁Sm	-2646
▁TV	-2647
hess	-2648
inct	-2649
ulpt	-2650
▁Ste	-2651
▁nar	-2652
▁sil	-2653
▁2002	-2654
▁Comp	-2655
▁Howe	-2656
▁That	-2657
▁anti	-2658
▁mult	-2659
▁shot	-2660
▁soon	-2661
▁teac	-2662
▁wide	-2663
▁wood	-2664
idents	-2665
▁Fleet	-2666
▁Valky	-2667
▁crake	-2668
▁liter	-2669
▁quick	-2670
▁trade	-2671
▁works	-2672
osaurus	-2673
▁Follow	-2674
▁itself	-2675
▁killed	-2676
▁placed	-2677
▁turned	-2678
ological	-2679
▁brother	-2680
▁largely	-2681
▁natural	-2682
▁scoring	-2683
▁Division	-2684
▁business	-2685
▁elements	-2686
▁finished	-2687
▁replaced	-2688
▁Following	-2689
▁generally	-2690
▁supported	-2691
▁underground	-2692
▁international	-2693
▁+	-2694
anc	-2695
ump	-2696
utz	-2697
▁80	-2698
▁au	-2699
band	-2700
ique	-2701
iser	-2702
ites	-2703
▁Mex	-2704
▁enc	-2705
▁gra	-2706
▁hon	-2707
iring	-2708
▁2000	-2709
▁Club	-2710
▁Hall	-2711
▁Stud	-2712
▁exam	-2713
▁heav	-2714
▁mass	-2715
▁vess	-2716
▁Bulls	-2717
▁books	-2718
▁espec	-2719
▁Direct	-2720
▁detail	-2721
▁fourth	-2722
▁friend	-2723
▁Mathews	-2724
▁account	-2725
▁conclud	-2726
▁friends	-2727
▁prevent	-2728
▁Valkyria	-2729
▁entrance	-2730
▁especially	-2731
▁commandment	-2732
how	-2733
ades	-2734
aker	-2735
reek	-2736
▁Art	-2737
▁Del	-2738
▁End	-2739
▁Val	-2740
▁nuc	-2741
▁saw	-2742
▁tar	-2743
arker	-2744
ready	-2745
▁High	-2746
▁ball	-2747
▁coun	-2748
▁fall	-2749
▁frag	-2750
▁girl	-2751
▁keep	-2752
▁phot	-2753
▁purp	-2754
▁vill	-2755
▁Later	-2756
▁blood	-2757
▁front	-2758
▁metal	-2759
▁whose	-2760
isation	-2761
ributed	-2762
▁relief	-2763
▁wanted	-2764
emporary	-2765
▁Admiral	-2766
▁Coleman	-2767
▁Service	-2768
▁airport	-2769
▁workers	-2770
▁possible	-2771
▁suggested	-2772
▁commission	-2773
ata	-2774
bor	-2775
edo	-2776
ift	-2777
ify	-2778
oms	-2779
oon	-2780
▁44	-2781
▁Kn	-2782
▁Of	-2783
aign	-2784
lict	-2785
oice	-2786
▁Jes	-2787
▁cat	-2788
▁inj	-2789
▁ult	-2790
▁1940	-2791
▁dead	-2792
▁give	-2793
▁self	-2794
▁size	-2795
ederal	-2796
▁Brook	-2797
▁Clark	-2798
▁going	-2799
▁heavy	-2800
▁shoot	-2801
ability	-2802
▁Prince	-2803
▁better	-2804
▁center	-2805
▁health	-2806
▁larger	-2807
▁sculpt	-2808
▁Captain	-2809
▁already	-2810
▁greater	-2811
▁reviews	-2812
▁smaller	-2813
▁towards	-2814
▁winning	-2815
▁appearance	-2816
▁Association	-2817
▁traditional	-2818
ett	-2819
isk	-2820
omm	-2821
rea	-2822
rif	-2823
onse	-2824
oses	-2825
rast	-2826
▁184	-2827
▁Ter	-2828
▁foc	-2829
▁sac	-2830
erved	-2831
icago	-2832
inent	-2833
▁2001	-2834
▁Star	-2835
▁bill	-2836
▁must	-2837
▁road	-2838
echism	-2839
isting	-2840
mitted	-2841
▁Charl	-2842
▁Frank	-2843
▁Times	-2844
▁below	-2845
▁hours	-2846
duction	-2847
▁Battle	-2848
▁closed	-2849
▁comedy	-2850
▁invest	-2851
▁minute	-2852
▁regard	-2853
▁saying	-2854
▁sevent	-2855
▁studio	-2856
▁territ	-2857
▁Chicago	-2858
▁Despite	-2859
▁Society	-2860
▁arrived	-2861
▁praised	-2862
▁provide	-2863
▁subject	-2864
▁Atlantic	-2865
▁directed	-2866
▁Billboard	-2867
▁operation	-2868
▁remaining	-2869
ee	-2870
gg	-2871
abb	-2872
gin	-2873
nel	-2874
▁32	-2875
▁Lo	-2876
▁Up	-2877
aily	-2878
aire	-2879
hing	-2880
▁300	-2881
▁Mid	-2882
▁Tim	-2883
▁sal	-2884
cient	-2885
ithic	-2886
quare	-2887
▁appl	-2888
▁hous	-2889
▁word	-2890
▁Geoff	-2891
▁cross	-2892
▁paper	-2893
▁polic	-2894
▁teams	-2895
▁woman	-2896
valiers	-2897
▁Africa	-2898
▁Poland	-2899
▁twenty	-2900
▁Charles	-2901
▁allowed	-2902
▁manager	-2903
▁ordered	-2904
▁increase	-2905
▁response	-2906
▁Dominican	-2907
▁Chevaliers	-2908
go	-2909
▁-	-2910
▁°	-2911
uck	-2912
▁Po	-2913
▁Tw	-2914
ands	-2915
arts	-2916
ests	-2917
ming	-2918
orce	-2919
tles	-2920
▁Fin	-2921
▁Hen	-2922
▁San	-2923
▁Sur	-2924
▁und	-2925
imate	-2926
riage	-2927
thing	-2928
urity	-2929
▁Cull	-2930
▁chap	-2931
▁chem	-2932
▁meas	-2933
▁poor	-2934
▁save	-2935
anding	-2936
orpedo	-2937
▁famil	-2938
▁nomin	-2939
▁offer	-2940
▁enough	-2941
▁helped	-2942
▁ranked	-2943
▁submar	-2944
▁Academy	-2945
▁Fernand	-2946
▁overall	-2947
▁Romanian	-2948
▁greatest	-2949
▁monument	-2950
▁personal	-2951
▁southern	-2952
▁specific	-2953
▁standard	-2954
▁Catechism	-2955
▁president	-2956
AS	-2957
II	-2958
bl	-2959
irt	-2960
uel	-2961
▁fr	-2962
agod	-2963
iant	-2964
olid	-2965
▁Fei	-2966
▁Sim	-2967
▁Ton	-2968
▁ben	-2969
▁doc	-2970
▁sat	-2971
intin	-2972
orses	-2973
ortun	-2974
▁1994	-2975
▁Cold	-2976
▁bask	-2977
▁cost	-2978
▁date	-2979
▁happ	-2980
▁Queen	-2981
▁compl	-2982
▁favor	-2983
▁forms	-2984
▁lines	-2985
▁sites	-2986
▁Tintin	-2987
▁amount	-2988
▁necess	-2989
▁awarded	-2990
▁highway	-2991
▁private	-2992
▁Clarkson	-2993
▁cultural	-2994
▁independ	-2995
▁industry	-2996
▁services	-2997
▁suffered	-2998
inf	-2999
▁lo	-3000
aust	-3001
bers	-3002
rief	-3003
▁Bec	-3004
▁Jos	-3005
▁Met	-3006
▁Sha	-3007
▁emb	-3008
asion	-3009
aught	-3010
▁Post	-3011
▁Week	-3012
▁cred	-3013
aining	-3014
▁Campb	-3015
▁Civil	-3016
▁armed	-3017
▁newsp	-3018
▁visit	-3019
▁whole	-3020
▁Museum	-3021
▁always	-3022
▁flying	-3023
▁mostly	-3024
▁rather	-3025
▁secret	-3026
▁target	-3027
▁College	-3028
▁average	-3029
▁certain	-3030
▁finally	-3031
▁torpedo	-3032
▁campaign	-3033
▁magazine	-3034
▁President	-3035
▁buildings	-3036
▁education	-3037
▁Department	-3038
▁excavation	-3039
▁archaeological	-3040
gr	-3041
▁Av	-3042
▁FI	-3043
ires	-3044
ties	-3045
▁Hum	-3046
▁Sal	-3047
▁Var	-3048
▁hit	-3049
▁lab	-3050
▁pun	-3051
ching	-3052
heast	-3053
inals	-3054
owers	-3055
▁1996	-3056
▁Ders	-3057
▁Foot	-3058
▁Mill	-3059
▁Part	-3060
▁anim	-3061
▁deep	-3062
▁kind	-3063
▁thus	-3064
howitz	-3065
▁Angel	-3066
▁Sever	-3067
▁Young	-3068
▁fifth	-3069
▁image	-3070
▁sport	-3071
▁staff	-3072
▁terms	-3073
▁types	-3074
▁Barker	-3075
▁Cullen	-3076
▁Mexico	-3077
▁albums	-3078
▁assist	-3079
▁horses	-3080
▁inches	-3081
▁longer	-3082
▁travel	-3083
▁Germany	-3084
▁minutes	-3085
▁writers	-3086
struction	-3087
▁marriage	-3088
▁Woodhouse	-3089
▁Dershowitz	-3090
awa	-3091
bon	-3092
urs	-3093
▁90	-3094
▁ap	-3095
▁cy	-3096
iest	-3097
itte	-3098
rian	-3099
ully	-3100
▁Not	-3101
▁Rad	-3102
▁der	-3103
▁pen	-3104
▁rap	-3105
▁wor	-3106
arily	-3107
using	-3108
uture	-3109
▁Area	-3110
▁Conf	-3111
▁Game	-3112
▁Hosp	-3113
▁Lady	-3114
▁says	-3115
▁spir	-3116
ashion	-3117
selves	-3118
▁Peter	-3119
▁Since	-3120
▁naval	-3121
▁shows	-3122
ription	-3123
▁access	-3124
▁except	-3125
▁failed	-3126
▁instit	-3127
▁living	-3128
▁method	-3129
▁nature	-3130
▁slight	-3131
▁Central	-3132
▁Chronic	-3133
▁company	-3134
▁divided	-3135
▁feature	-3136
▁officer	-3137
▁playoff	-3138
▁usually	-3139
▁Canadian	-3140
▁becoming	-3141
▁positive	-3142
▁probably	-3143
▁reaction	-3144
▁required	-3145
▁Government	-3146
▁appearances	-3147
ao	-3148
ema	-3149
han	-3150
iná	-3151
lin	-3152
que	-3153
ume	-3154
▁BC	-3155
▁ML	-3156
▁Te	-3157
airs	-3158
cast	-3159
ibar	-3160
ills	-3161
▁175	-3162
▁era	-3163
▁hop	-3164
▁imm	-3165
▁let	-3166
anded	-3167
ously	-3168
rical	-3169
▁1942	-3170
▁1995	-3171
▁Four	-3172
▁Stef	-3173
▁Stra	-3174
▁Zanz	-3175
▁food	-3176
▁jazz	-3177
▁mach	-3178
▁peak	-3179
▁rare	-3180
▁risk	-3181
▁told	-3182
▁tons	-3183
ipment	-3184
istics	-3185
orship	-3186
rapped	-3187
▁Carol	-3188
▁Group	-3189
▁makes	-3190
▁quest	-3191
▁surre	-3192
osition	-3193
▁Madero	-3194
▁Toniná	-3195
▁figure	-3196
▁govern	-3197
▁source	-3198
▁things	-3199
▁actress	-3200
▁battles	-3201
▁claimed	-3202
▁discuss	-3203
▁offered	-3204
▁primary	-3205
▁whether	-3206
▁Minister	-3207
▁Zanzibar	-3208
▁occurred	-3209
▁attempted	-3210
▁beginning	-3211
▁fictional	-3212
▁basketball	-3213
▁themselves	-3214
▁constructed	-3215
of	-3216
ama	-3217
ibr	-3218
urg	-3219
▁ey	-3220
abit	-3221
ceed	-3222
fact	-3223
▁Cal	-3224
▁Old	-3225
▁log	-3226
▁unc	-3227
alled	-3228
andon	-3229
odrom	-3230
senal	-3231
▁1939	-3232
▁1944	-3233
▁1980	-3234
▁Book	-3235
▁Land	-3236
▁cann	-3237
▁disp	-3238
▁hard	-3239
▁rail	-3240
▁resc	-3241
▁true	-3242
▁asked	-3243
▁boats	-3244
▁camps	-3245
▁caves	-3246
▁court	-3247
▁ended	-3248
▁tower	-3249
▁Golden	-3250
▁course	-3251
▁observ	-3252
▁regime	-3253
▁settle	-3254
▁Because	-3255
▁Jackets	-3256
▁Several	-3257
▁entered	-3258
▁figures	-3259
▁instrum	-3260
▁managed	-3261
▁nuclear	-3262
▁society	-3263
▁western	-3264
▁continue	-3265
ampionship	-3266
▁attention	-3267
▁storyline	-3268
▁Allosaurus	-3269
▁increasing	-3270
▁responsible	-3271
tt	-3272
▁Ty	-3273
head	-3274
imin	-3275
irth	-3276
quar	-3277
ship	-3278
▁400	-3279
▁Hou	-3280
▁Inf	-3281
▁Out	-3282
▁Sun	-3283
▁asp	-3284
▁aut	-3285
▁hor	-3286
▁mus	-3287
tered	-3288
▁Cast	-3289
▁Hung	-3290
▁Like	-3291
▁Over	-3292
▁face	-3293
▁feel	-3294
▁inch	-3295
ynasty	-3296
▁Award	-3297
▁avoid	-3298
▁brief	-3299
▁coach	-3300
▁coins	-3301
▁frequ	-3302
▁plans	-3303
▁remix	-3304
▁stage	-3305
▁theat	-3306
▁upper	-3307
ication	-3308
▁determ	-3309
▁issued	-3310
▁metres	-3311
▁sister	-3312
▁artists	-3313
▁federal	-3314
▁heavily	-3315
▁initial	-3316
▁medical	-3317
▁numbers	-3318
▁refused	-3319
▁complete	-3320
▁soldiers	-3321
▁Fernandez	-3322
▁influence	-3323
ls	-3324
su	-3325
aut	-3326
uan	-3327
▁Ev	-3328
▁Ll	-3329
enes	-3330
iple	-3331
ourt	-3332
work	-3333
▁180	-3334
▁Ark	-3335
▁Bey	-3336
▁Ser	-3337
▁hyg	-3338
▁sem	-3339
▁shr	-3340
ening	-3341
ishop	-3342
itude	-3343
viron	-3344
▁1999	-3345
▁Girl	-3346
▁Ital	-3347
▁Omar	-3348
▁Stre	-3349
▁arts	-3350
▁cele	-3351
▁herd	-3352
▁leng	-3353
▁sulf	-3354
▁weap	-3355
artial	-3356
iences	-3357
▁Water	-3358
▁cause	-3359
▁means	-3360
▁princ	-3361
▁winds	-3362
itation	-3363
ression	-3364
▁Priest	-3365
▁Review	-3366
▁broken	-3367
▁latter	-3368
▁unable	-3369
ribution	-3370
▁Houston	-3371
▁Russian	-3372
▁records	-3373
▁related	-3374
▁Antimony	-3375
▁Director	-3376
▁critical	-3377
▁directly	-3378
▁proposed	-3379
▁standing	-3380
▁Commander	-3381
▁conducted	-3382
▁countries	-3383
▁Conference	-3384
▁associated	-3385
▁transferred	-3386
▁subsequently	-3387
gn	-3388
sw	-3389
add	-3390
ipp	-3391
ius	-3392
leg	-3393
▁Dr	-3394
▁Ke	-3395
▁bi	-3396
▁ly	-3397
azer	-3398
enge	-3399
ingu	-3400
oric	-3401
rate	-3402
road	-3403
▁176	-3404
▁bad	-3405
▁job	-3406
▁neg	-3407
allow	-3408
aring	-3409
ellig	-3410
ittee	-3411
▁Fair	-3412
▁dram	-3413
▁prem	-3414
▁surf	-3415
▁text	-3416
blazer	-3417
isters	-3418
▁Class	-3419
▁Cross	-3420
▁Light	-3421
▁Smith	-3422
▁cells	-3423
▁chess	-3424
▁extra	-3425
▁hands	-3426
▁parts	-3427
▁peace	-3428
▁pilot	-3429
▁radio	-3430
▁relat	-3431
▁speed	-3432
emorial	-3433
olithic	-3434
▁Norman	-3435
▁Thomas	-3436
▁approx	-3437
▁conver	-3438
▁future	-3439
▁listed	-3440
▁office	-3441
▁promot	-3442
▁Coldrum	-3443
▁removed	-3444
▁Columbus	-3445
▁distinct	-3446
▁leukemia	-3447
▁teaching	-3448
▁equipment	-3449
▁hurricane	-3450
▁situation	-3451
▁officially	-3452
▁ultimately	-3453
▁archaeology	-3454
▁individuals	-3455
▁represented	-3456
att	-3457
eth	-3458
olk	-3459
oys	-3460
rie	-3461
umn	-3462
vey	-3463
▁79	-3464
▁NS	-3465
agle	-3466
bour	-3467
dess	-3468
itor	-3469
onna	-3470
▁179	-3471
▁Bre	-3472
▁Dan	-3473
▁Its	-3474
▁Los	-3475
▁Pre	-3476
▁Rev	-3477
▁Str	-3478
▁cas	-3479
▁dut	-3480
▁pan	-3481
▁rom	-3482
▁1941	-3483
▁1960	-3484
▁1970	-3485
▁1998	-3486
▁Adam	-3487
▁Alex	-3488
▁Care	-3489
▁Gang	-3490
▁Sing	-3491
▁dism	-3492
▁guit	-3493
▁seem	-3494
▁tomb	-3495
▁wing	-3496
undred	-3497
▁Force	-3498
▁Franc	-3499
▁Saint	-3500
▁admin	-3501
▁chall	-3502
▁finan	-3503
▁fruit	-3504
▁labor	-3505
▁lower	-3506
▁notes	-3507
▁rapid	-3508
▁refer	-3509
▁scene	-3510
▁spent	-3511
▁takes	-3512
▁Creutz	-3513
▁Secret	-3514
▁annual	-3515
▁earned	-3516
▁giving	-3517
▁highly	-3518
▁silver	-3519
▁summer	-3520
▁Eastern	-3521
▁Wrapped	-3522
▁complet	-3523
▁mention	-3524
▁quickly	-3525
▁request	-3526
▁teacher	-3527
vironment	-3528
▁Football	-3529
▁allowing	-3530
▁captured	-3531
▁combined	-3532
▁inspired	-3533
▁intended	-3534
▁selected	-3535
▁residents	-3536
▁typically	-3537
▁Chronicles	-3538
▁Hellblazer	-3539
▁controlled	-3540
▁historical	-3541
▁respectively	-3542
bo	-3543
hy	-3544
▁£	-3545
AAF	-3546
gas	-3547
men	-3548
now	-3549
ows	-3550
adel	-3551
agre	-3552
hood	-3553
utch	-3554
▁Max	-3555
▁Sen	-3556
▁Tre	-3557
▁pit	-3558
▁saf	-3559
amber	-3560
iment	-3561
rania	-3562
▁1930	-3563
▁1988	-3564
▁Cons	-3565
▁More	-3566
▁RAAF	-3567
▁Work	-3568
▁acqu	-3569
▁emph	-3570
▁grew	-3571
▁hair	-3572
▁male	-3573
▁prep	-3574
▁quar	-3575
▁stra	-3576
▁uses	-3577
etwork	-3578
icient	-3579
ricult	-3580
▁Henry	-3581
▁basis	-3582
▁fired	-3583
▁money	-3584
▁sixth	-3585
▁suppl	-3586
▁theme	-3587
▁thous	-3588
aughter	-3589
ishment	-3590
▁bodies	-3591
▁change	-3592
▁create	-3593
▁prohib	-3594
▁square	-3595
ansfield	-3596
▁calling	-3597
▁approach	-3598
▁consider	-3599
▁producer	-3600
▁promoted	-3601
▁referred	-3602
▁squadron	-3603
▁concluded	-3604
▁monuments	-3605
▁sentences	-3606
▁discovered	-3607
agn	-3608
mon	-3609
oes	-3610
pan	-3611
udd	-3612
▁38	-3613
▁Bo	-3614
▁ha	-3615
▁po	-3616
alys	-3617
aped	-3618
otte	-3619
phia	-3620
▁Ern	-3621
▁Mil	-3622
▁mem	-3623
▁mut	-3624
agoda	-3625
emble	-3626
inese	-3627
itual	-3628
▁1991	-3629
▁Bern	-3630
▁Coun	-3631
▁Dist	-3632
▁Hill	-3633
▁Iron	-3634
▁bird	-3635
▁cave	-3636
▁coin	-3637
▁idea	-3638
▁king	-3639
▁link	-3640
▁prec	-3641
ective	-3642
ership	-3643
usband	-3644
▁Human	-3645
▁Latin	-3646
▁Video	-3647
▁comic	-3648
▁indic	-3649
▁oppon	-3650
▁Center	-3651
▁Reines	-3652
▁emphas	-3653
▁ending	-3654
▁extrem	-3655
▁growth	-3656
▁issues	-3657
▁length	-3658
▁parent	-3659
▁raised	-3660
▁transl	-3661
adelphia	-3662
ervation	-3663
▁Italian	-3664
▁Records	-3665
▁abandon	-3666
▁actions	-3667
▁complex	-3668
▁efforts	-3669
▁leaving	-3670
▁retired	-3671
▁sources	-3672
▁aerodrom	-3673
▁families	-3674
▁hospital	-3675
▁includes	-3676
▁launched	-3677
▁opportun	-3678
▁slightly	-3679
▁Charlotte	-3680
▁consisted	-3681
▁expressed	-3682
▁surrender	-3683
▁Australian	-3684
▁surrounding	-3685
ati	-3686
aws	-3687
met	-3688
ney	-3689
▁52	-3690
▁CP	-3691
▁Lu	-3692
▁Mo	-3693
▁My	-3694
▁Ox	-3695
▁Ve	-3696
▁du	-3697
ends	-3698
iled	-3699
ogen	-3700
oura	-3701
rack	-3702
roph	-3703
tery	-3704
▁Cro	-3705
▁Fer	-3706
▁Hor	-3707
▁Kur	-3708
▁Lew	-3709
▁Rul	-3710
▁oil	-3711
▁unl	-3712
eller	-3713
ville	-3714
▁1920	-3715
▁1943	-3716
▁Chap	-3717
▁Cont	-3718
▁Corn	-3719
▁Leon	-3720
▁Road	-3721
▁Stan	-3722
▁Thak	-3723
▁Time	-3724
▁iron	-3725
▁pain	-3726
▁plot	-3727
▁symb	-3728
ecting	-3729
tained	-3730
▁Green	-3731
▁bound	-3732
▁bring	-3733
▁enemy	-3734
▁grass	-3735
▁meant	-3736
▁older	-3737
▁route	-3738
▁stars	-3739
▁Finals	-3740
▁Middle	-3741
▁Urania	-3742
▁flight	-3743
▁intern	-3744
▁marked	-3745
▁passed	-3746
▁themes	-3747
▁Chinese	-3748
▁Council	-3749
▁Germans	-3750
▁demonst	-3751
▁engaged	-3752
▁hundred	-3753
▁martial	-3754
▁meaning	-3755
▁recover	-3756
▁univers	-3757
▁Villaret	-3758
▁accepted	-3759
▁collabor	-3760
▁conflict	-3761
▁investig	-3762
▁revealed	-3763
▁commander	-3764
▁newspaper	-3765
▁officials	-3766
▁approximately	-3767
▁archaeologist	-3768
igg	-3769
nyi	-3770
usp	-3771
▁39	-3772
▁Ul	-3773
▁ir	-3774
ancy	-3775
chel	-3776
orps	-3777
rane	-3778
rant	-3779
▁Add	-3780
▁Arm	-3781
▁Hob	-3782
▁Jer	-3783
▁Jul	-3784
▁Tri	-3785
▁nin	-3786
abbar	-3787
annel	-3788
arked	-3789
lands	-3790
▁Crus	-3791
▁Miss	-3792
▁Tele	-3793
▁baby	-3794
▁cell	-3795
▁done	-3796
▁opin	-3797
▁pair	-3798
▁pick	-3799
▁stay	-3800
angers	-3801
ocaust	-3802
▁Child	-3803
▁Chris	-3804
▁Girls	-3805
▁Grand	-3806
▁Short	-3807
▁birth	-3808
▁domin	-3809
▁exist	-3810
▁exped	-3811
▁guard	-3812
▁inner	-3813
▁lives	-3814
▁mixed	-3815
▁newly	-3816
▁owned	-3817
▁withd	-3818
▁Hockey	-3819
▁Public	-3820
▁attend	-3821
▁copies	-3822
▁interp	-3823
▁mainly	-3824
▁nation	-3825
▁nearby	-3826
▁prison	-3827
▁rights	-3828
▁specim	-3829
▁Another	-3830
▁Richard	-3831
▁Through	-3832
▁attract	-3833
▁changed	-3834
▁fashion	-3835
▁forward	-3836
▁married	-3837
▁matches	-3838
▁reduced	-3839
▁respond	-3840
▁underst	-3841
▁variety	-3842
▁vessels	-3843
▁victory	-3844
▁District	-3845
▁creation	-3846
▁majority	-3847
▁question	-3848
▁resulted	-3849
▁scholars	-3850
▁formation	-3851
▁personnel	-3852
▁positions	-3853
▁presented	-3854
▁facilities	-3855
▁influenced	-3856
▁immediately	-3857
AT	-3858
RA	-3859
rd	-3860
sc	-3861
we	-3862
bre	-3863
ims	-3864
ios	-3865
oud	-3866
unt	-3867
▁42	-3868
▁70	-3869
▁Gw	-3870
▁Ye	-3871
ario	-3872
emic	-3873
hist	-3874
▁App	-3875
▁Ber	-3876
▁Bob	-3877
▁Mus	-3878
▁Sch	-3879
▁cer	-3880
▁cur	-3881
▁ded	-3882
▁mig	-3883
▁mph	-3884
▁our	-3885
aland	-3886
ender	-3887
ether	-3888
▁Morr	-3889
▁Swed	-3890
▁fung	-3891
▁myth	-3892
▁wins	-3893
▁zomb	-3894
rovers	-3895
▁Brack	-3896
▁Jesus	-3897
▁Maria	-3898
▁Three	-3899
▁Trans	-3900
▁Wales	-3901
▁board	-3902
▁brick	-3903
▁floor	-3904
▁plant	-3905
▁saves	-3906
▁shell	-3907
▁thick	-3908
▁Forces	-3909
▁Street	-3910
▁acting	-3911
▁active	-3912
▁analys	-3913
▁county	-3914
▁forest	-3915
quarters	-3916
▁adopted	-3917
▁journal	-3918
▁produce	-3919
▁results	-3920
▁seasons	-3921
▁achieved	-3922
▁contrast	-3923
▁document	-3924
▁historic	-3925
▁property	-3926
▁Holocaust	-3927
▁prominent	-3928
▁identified	-3929
NL	-3930
gé	-3931
▁#	-3932
ocr	-3933
amer	-3934
form	-3935
iate	-3936
kins	-3937
oper	-3938
vert	-3939
▁Age	-3940
▁Alg	-3941
▁Bru	-3942
▁Ell	-3943
▁FIT	-3944
▁Gar	-3945
▁NBC	-3946
▁Tor	-3947
▁deg	-3948
▁dro	-3949
▁got	-3950
▁jud	-3951
▁key	-3952
▁mic	-3953
▁mur	-3954
▁tim	-3955
▁via	-3956
▁yet	-3957
aging	-3958
ernon	-3959
ports	-3960
rison	-3961
romet	-3962
▁1950	-3963
▁1997	-3964
▁Back	-3965
▁Crit	-3966
▁Earn	-3967
▁Home	-3968
▁Step	-3969
▁fort	-3970
agogue	-3971
utions	-3972
▁China	-3973
▁Devin	-3974
▁Enter	-3975
▁Hobbs	-3976
▁Loose	-3977
▁cited	-3978
▁dance	-3979
▁exhib	-3980
▁hired	-3981
▁neigh	-3982
▁neutr	-3983
▁today	-3984
▁walls	-3985
▁wides	-3986
▁words	-3987
▁write	-3988
oration	-3989
▁Branch	-3990
▁People	-3991
▁altern	-3992
▁belong	-3993
▁escort	-3994
▁higher	-3995
▁losses	-3996
▁master	-3997
▁needed	-3998
▁normal	-3999
▁reform	-4000
▁screen	-4001
▁streng	-4002
▁temper	-4003
▁widely	-4004
▁African	-4005
▁Earnest	-4006
▁Madison	-4007
▁Stefani	-4008
▁becomes	-4009
▁changes	-4010
▁organiz	-4011
▁planned	-4012
▁seventh	-4013
▁studies	-4014
elligence	-4015
▁activity	-4016
▁breeding	-4017
▁decision	-4018
▁expected	-4019
▁location	-4020
▁northern	-4021
▁physical	-4022
▁practice	-4023
▁violence	-4024
▁secondary	-4025
▁conditions	-4026
▁revolution	-4027
▁authorities	-4028
▁environment	-4029
▁information	-4030
▁publication	-4031
▁participated	-4032
aur	-4033
eck	-4034
hem	-4035
ids	-4036
oty	-4037
ych	-4038
ygh	-4039
▁33	-4040
▁34	-4041
▁37	-4042
▁ox	-4043
anks	-4044
ease	-4045
ergy	-4046
nell	-4047
teen	-4048
umed	-4049
vati	-4050
▁CPS	-4051
▁Han	-4052
▁How	-4053
▁Jac	-4054
▁Mer	-4055
▁Ram	-4056
▁Sum	-4057
▁Tra	-4058
▁Vir	-4059
▁enj	-4060
▁hem	-4061
▁lif	-4062
▁ran	-4063
andid	-4064
anish	-4065
erted	-4066
ipped	-4067
lines	-4068
order	-4069
pread	-4070
ricus	-4071
▁Celt	-4072
▁Gulf	-4073
▁Uygh	-4074
▁arms	-4075
▁boat	-4076
▁coup	-4077
▁fres	-4078
▁room	-4079
▁sole	-4080
▁solo	-4081
▁step	-4082
▁unit	-4083
anelli	-4084
anging	-4085
arliam	-4086
ilding	-4087
lywood	-4088
ocated	-4089
▁Major	-4090
▁behav	-4091
▁deity	-4092
▁fully	-4093
▁holid	-4094
▁moral	-4095
▁pregn	-4096
▁purch	-4097
estival	-4098
iations	-4099
▁Gabbar	-4100
▁Slayer	-4101
▁artist	-4102
▁belief	-4103
▁boxing	-4104
▁celebr	-4105
▁combat	-4106
▁defeat	-4107
▁deploy	-4108
▁famous	-4109
▁likely	-4110
▁reject	-4111
▁stones	-4112
▁Between	-4113
▁Blackie	-4114
▁Haitian	-4115
▁Romania	-4116
▁ability	-4117
▁concent	-4118
▁concept	-4119
▁convent	-4120
▁effects	-4121
▁goddess	-4122
▁network	-4123
▁pattern	-4124
▁reports	-4125
▁visited	-4126
▁agricult	-4127
▁compared	-4128
▁hygromet	-4129
▁Bracknell	-4130
▁Strapping	-4131
▁featuring	-4132
▁structure	-4133
▁Ganganelli	-4134
▁experience	-4135
▁consecutive	-4136
▁Philadelphia	-4137
▁hygrometricus	-4138
OT	-4139
VP	-4140
gl	-4141
wh	-4142
isl	-4143
itt	-4144
rey	-4145
▁1.	-4146
▁57	-4147
▁75	-4148
▁76	-4149
▁Ry	-4150
▁fa	-4151
anda	-4152
bert	-4153
cean	-4154
ctor	-4155
emon	-4156
mond	-4157
pire	-4158
uing	-4159
ynam	-4160
▁600	-4161
▁Day	-4162
▁Jim	-4163
▁MVP	-4164
▁Mac	-4165
▁Mod	-4166
▁Pac	-4167
▁SNL	-4168
▁Sam	-4169
▁Sea	-4170
▁Sir	-4171
▁inn	-4172
▁pay	-4173
▁tru	-4174
aiman	-4175
ansas	-4176
antry	-4177
astra	-4178
echan	-4179
▁1918	-4180
▁1993	-4181
▁acad	-4182
▁cert	-4183
▁door	-4184
▁reag	-4185
ounded	-4186
perial	-4187
▁Eagle	-4188
▁Llosa	-4189
▁Tower	-4190
▁homes	-4191
▁initi	-4192
▁moves	-4193
▁party	-4194
▁sense	-4195
▁sides	-4196
▁Fastra	-4197
▁Oxford	-4198
▁Temple	-4199
▁Vargas	-4200
▁assass	-4201
▁charge	-4202
▁couple	-4203
▁guides	-4204
▁guitar	-4205
▁leader	-4206
▁scient	-4207
▁spread	-4208
▁taught	-4209
▁winter	-4210
▁Parvati	-4211
▁Spanish	-4212
▁chamber	-4213
▁counter	-4214
▁covered	-4215
▁dollars	-4216
▁shortly	-4217
arliament	-4218
▁Algernon	-4219
▁Carolina	-4220
▁Victoria	-4221
▁extended	-4222
▁fighting	-4223
▁planning	-4224
▁separate	-4225
▁starting	-4226
▁Commandos	-4227
▁Palestine	-4228
▁alongside	-4229
▁historian	-4230
▁something	-4231
▁standards	-4232
▁controvers	-4233
▁influences	-4234
▁widespread	-4235
▁competition	-4236
▁contemporary	-4237
▁performances	-4238
ano	-4239
iff	-4240
ils	-4241
iny	-4242
onc	-4243
uff	-4244
▁56	-4245
▁72	-4246
▁Gi	-4247
▁If	-4248
▁UN	-4249
▁pp	-4250
aken	-4251
cers	-4252
etic	-4253
ieut	-4254
ipel	-4255
uous	-4256
west	-4257
▁120	-4258
▁Dar	-4259
▁Wil	-4260
▁big	-4261
▁dry	-4262
▁row	-4263
apsed	-4264
phant	-4265
while	-4266
▁1986	-4267
▁Arab	-4268
▁Belg	-4269
▁Just	-4270
▁Play	-4271
▁Wars	-4272
▁bass	-4273
▁bone	-4274
▁deem	-4275
▁dial	-4276
▁outl	-4277
▁qual	-4278
▁rate	-4279
▁rule	-4280
▁wear	-4281
change	-4282
eltown	-4283
ieuten	-4284
itable	-4285
orning	-4286
▁Board	-4287
▁Broad	-4288
▁Hergé	-4289
▁Inter	-4290
▁Night	-4291
▁Prime	-4292
▁Scott	-4293
▁Story	-4294
▁alone	-4295
▁benef	-4296
▁diagn	-4297
▁displ	-4298
▁gives	-4299
▁gradu	-4300
▁media	-4301
▁piece	-4302
▁plays	-4303
▁reach	-4304
▁river	-4305
▁value	-4306
ressive	-4307
▁Brooks	-4308
▁Bruins	-4309
▁Ernest	-4310
▁Peters	-4311
▁arrest	-4312
▁begins	-4313
▁bridge	-4314
▁depart	-4315
▁images	-4316
▁impact	-4317
▁intens	-4318
▁murder	-4319
▁places	-4320
▁recent	-4321
▁recomm	-4322
▁surviv	-4323
▁Nazaire	-4324
▁consist	-4325
▁decades	-4326
▁foreign	-4327
▁perfect	-4328
▁scholar	-4329
▁weapons	-4330
▁administ	-4331
▁attacked	-4332
▁declined	-4333
▁division	-4334
▁economic	-4335
▁flooding	-4336
▁maintain	-4337
▁problems	-4338
▁security	-4339
▁Egyptians	-4340
▁Entertain	-4341
▁explained	-4342
▁financial	-4343
▁producers	-4344
▁thousands	-4345
▁treatment	-4346
▁Commission	-4347
▁collection	-4348
▁literature	-4349
▁Campbeltown	-4350
de	-4351
ASP	-4352
agu	-4353
awn	-4354
mod	-4355
ski	-4356
tar	-4357
vis	-4358
íaz	-4359
▁53	-4360
▁54	-4361
▁77	-4362
aded	-4363
alle	-4364
back	-4365
erve	-4366
ibly	-4367
icks	-4368
ocks	-4369
olen	-4370
pass	-4371
uses	-4372
very	-4373
▁Bal	-4374
▁Cec	-4375
▁Den	-4376
▁Ham	-4377
▁Hot	-4378
▁Ont	-4379
▁Tod	-4380
▁Way	-4381
▁ang	-4382
▁ble	-4383
▁eas	-4384
▁gar	-4385
▁lic	-4386
▁mel	-4387
▁unp	-4388
chest	-4389
eless	-4390
illed	-4391
inian	-4392
inity	-4393
ufact	-4394
▁1914	-4395
▁Bost	-4396
▁Both	-4397
▁Díaz	-4398
▁Lord	-4399
▁acts	-4400
▁beat	-4401
▁sett	-4402
▁slow	-4403
▁susp	-4404
▁tall	-4405
▁wolf	-4406
ceeded	-4407
ession	-4408
illery	-4409
▁Court	-4410
▁Princ	-4411
▁Sound	-4412
▁adult	-4413
▁cases	-4414
▁enjoy	-4415
▁grant	-4416
▁leave	-4417
▁lived	-4418
▁print	-4419
▁recon	-4420
▁roles	-4421
▁vocal	-4422
▁worst	-4423
▁cancer	-4424
▁inside	-4425
▁levels	-4426
▁middle	-4427
▁prepar	-4428
▁scenes	-4429
▁spaces	-4430
▁strugg	-4431
▁symbol	-4432
▁tracks	-4433
▁undert	-4434
▁vocals	-4435
▁Johnson	-4436
▁Ontario	-4437
▁Pacific	-4438
▁Patrick	-4439
▁adapted	-4440
▁collect	-4441
▁economy	-4442
▁factory	-4443
▁herself	-4444
▁holiday	-4445
▁husband	-4446
▁invited	-4447
▁mission	-4448
▁musical	-4449
▁quality	-4450
▁stating	-4451
▁surface	-4452
▁village	-4453
▁Arkansas	-4454
▁actually	-4455
▁analysis	-4456
▁attempts	-4457
▁incorpor	-4458
▁manufact	-4459
▁numerous	-4460
▁Hungarian	-4461
▁Neolithic	-4462
▁broadcast	-4463
▁compounds	-4464
▁necessary	-4465
▁synagogue	-4466
▁destroyers	-4467
▁association	-4468
oe	-4469
cel	-4470
lee	-4471
▁AD	-4472
▁Bh	-4473
acre	-4474
aria	-4475
atur	-4476
bury	-4477
cend	-4478
eway	-4479
imum	-4480
iven	-4481
otes	-4482
ovil	-4483
xual	-4484
yles	-4485
▁Ele	-4486
▁Mal	-4487
▁Wat	-4488
▁amb	-4489
▁cle	-4490
▁dom	-4491
▁enl	-4492
▁ess	-4493
▁ple	-4494
isher	-4495
itals	-4496
ordin	-4497
uries	-4498
▁1946	-4499
▁1992	-4500
▁Bald	-4501
▁Fort	-4502
▁Gamb	-4503
▁Pope	-4504
▁Thai	-4505
▁dire	-4506
▁diss	-4507
▁drum	-4508
▁fans	-4509
▁frig	-4510
▁hero	-4511
▁loan	-4512
▁perm	-4513
▁semi	-4514
▁sout	-4515
▁tied	-4516
▁virt	-4517
▁webs	-4518
▁wild	-4519
ienced	-4520
manent	-4521
▁Carey	-4522
▁Dream	-4523
▁Lewis	-4524
▁Marsh	-4525
▁concl	-4526
▁drawn	-4527
▁label	-4528
▁lyric	-4529
▁outer	-4530
▁share	-4531
▁stopp	-4532
ections	-4533
▁Office	-4534
▁Wander	-4535
▁Yeovil	-4536
▁argued	-4537
▁candid	-4538
▁carbon	-4539
▁chapel	-4540
▁dating	-4541
▁disapp	-4542
▁hockey	-4543
▁illust	-4544
▁legisl	-4545
▁native	-4546
▁pilots	-4547
▁rating	-4548
▁serves	-4549
▁temple	-4550
▁Nations	-4551
▁Stephen	-4552
▁believe	-4553
▁creator	-4554
▁display	-4555
▁learned	-4556
▁parents	-4557
▁temples	-4558
▁worship	-4559
▁Francisc	-4560
▁Imperial	-4561
▁daughter	-4562
▁improved	-4563
▁movement	-4564
▁occupied	-4565
▁shooting	-4566
▁supplies	-4567
▁Alexander	-4568
▁commented	-4569
▁discovery	-4570
▁potential	-4571
▁submarine	-4572
▁completely	-4573
▁popularity	-4574
▁independent	-4575
▁successfully	-4576
▁organizations	-4577
arm	-4578
eph	-4579
ety	-4580
iar	-4581
raw	-4582
▁43	-4583
▁48	-4584
▁61	-4585
▁88	-4586
▁95	-4587
▁La	-4588
▁Li	-4589
▁Tu	-4590
▁yl	-4591
anti	-4592
ette	-4593
hold	-4594
ilis	-4595
illa	-4596
rial	-4597
ware	-4598
▁250	-4599
▁800	-4600
▁Bow	-4601
▁Hal	-4602
▁Mor	-4603
▁Rem	-4604
▁agg	-4605
▁bed	-4606
▁lay	-4607
▁max	-4608
▁mis	-4609
▁pal	-4610
▁rat	-4611
agreb	-4612
anced	-4613
break	-4614
cture	-4615
eenth	-4616
idges	-4617
itors	-4618
ledge	-4619
ultan	-4620
umber	-4621
▁1913	-4622
▁1936	-4623
▁FITs	-4624
▁Fred	-4625
▁Gall	-4626
▁Gard	-4627
▁Head	-4628
▁Mean	-4629
▁Mike	-4630
▁Mint	-4631
▁Wash	-4632
▁Writ	-4633
▁bott	-4634
▁fuel	-4635
▁hemm	-4636
▁repe	-4637
▁weak	-4638
ibrary	-4639
resses	-4640
▁Corps	-4641
▁Greek	-4642
▁Guard	-4643
▁Gwend	-4644
▁Twins	-4645
▁compr	-4646
▁faith	-4647
▁gates	-4648
▁genus	-4649
▁habit	-4650
▁heart	-4651
▁immig	-4652
▁plain	-4653
acement	-4654
ipelago	-4655
ualties	-4656
▁Boston	-4657
▁Bridge	-4658
▁Celtic	-4659
▁Crusad	-4660
▁Flower	-4661
▁Heaven	-4662
▁Joseph	-4663
▁Kaiman	-4664
▁Portug	-4665
▁Zagreb	-4666
▁carved	-4667
▁coming	-4668
▁elimin	-4669
▁energy	-4670
▁humans	-4671
▁indust	-4672
▁mechan	-4673
▁moving	-4674
▁script	-4675
▁serial	-4676
▁Atlanta	-4677
▁Project	-4678
▁Rangers	-4679
▁accompl	-4680
▁debuted	-4681
▁element	-4682
▁landing	-4683
▁require	-4684
▁Industry	-4685
▁Japanese	-4686
▁affected	-4687
▁attended	-4688
▁declared	-4689
▁distingu	-4690
▁earliest	-4691
▁episodes	-4692
▁severely	-4693
▁Gwendolen	-4694
▁Kaimanawa	-4695
▁Operation	-4696
▁Wanderers	-4697
▁converted	-4698
▁mentioned	-4699
▁organized	-4700
▁survivors	-4701
▁Background	-4702
▁Stansfield	-4703
▁management	-4704
▁structures	-4705
▁Archaeology	-4706
eg	-4707
ha	-4708
jo	-4709
mn	-4710
ua	-4711
ux	-4712
aga	-4713
eru	-4714
ini	-4715
ipl	-4716
omy	-4717
rog	-4718
sey	-4719
uzz	-4720
xts	-4721
▁51	-4722
▁55	-4723
▁62	-4724
▁mo	-4725
▁od	-4726
agon	-4727
anna	-4728
atre	-4729
berg	-4730
fort	-4731
ging	-4732
ilyn	-4733
inds	-4734
nown	-4735
thur	-4736
▁Dem	-4737
▁Exp	-4738
▁Mit	-4739
▁Rel	-4740
▁Sus	-4741
▁Tom	-4742
▁cin	-4743
▁eye	-4744
▁fix	-4745
▁mob	-4746
▁pap	-4747
▁rif	-4748
▁try	-4749
antic	-4750
cript	-4751
earch	-4752
ellow	-4753
estic	-4754
iders	-4755
iforn	-4756
inton	-4757
istry	-4758
stone	-4759
ublin	-4760
▁1937	-4761
▁1984	-4762
▁1985	-4763
▁Fant	-4764
▁Jeff	-4765
▁Mary	-4766
▁Prot	-4767
▁Scot	-4768
▁WASP	-4769
▁burn	-4770
▁exit	-4771
▁folk	-4772
▁myel	-4773
▁news	-4774
▁rays	-4775
▁rect	-4776
▁runs	-4777
▁sequ	-4778
▁task	-4779
▁trib	-4780
aganda	-4781
urches	-4782
▁Order	-4783
▁Press	-4784
▁Ruler	-4785
▁Veeru	-4786
▁artic	-4787
▁categ	-4788
▁dynam	-4789
▁rural	-4790
▁speak	-4791
▁texts	-4792
ifornia	-4793
ropical	-4794
▁Austro	-4795
▁Empire	-4796
▁Govern	-4797
▁Person	-4798
▁Virgin	-4799
▁assemb	-4800
▁column	-4801
▁compos	-4802
▁destru	-4803
▁fungus	-4804
▁lasted	-4805
▁losing	-4806
▁lyrics	-4807
▁market	-4808
▁ritual	-4809
▁severe	-4810
▁shared	-4811
▁singer	-4812
ortheast	-4813
▁Clinton	-4814
▁Israeli	-4815
▁Marilyn	-4816
▁Mitchel	-4817
▁aspects	-4818
▁assault	-4819
▁captain	-4820
▁flights	-4821
▁founded	-4822
▁missing	-4823
▁portray	-4824
▁problem	-4825
▁product	-4826
▁purpose	-4827
ieutenant	-4828
▁Confeder	-4829
▁apparent	-4830
▁audience	-4831
▁employed	-4832
▁interact	-4833
▁multiple	-4834
▁observed	-4835
▁prepared	-4836
▁pressure	-4837
▁projects	-4838
▁recently	-4839
▁religion	-4840
▁Secretary	-4841
▁abandoned	-4842
▁continues	-4843
▁dedicated	-4844
▁practices	-4845
▁California	-4846
▁Washington	-4847
▁importance	-4848
▁initiative	-4849
▁relatively	-4850
▁excavations	-4851
▁experienced	-4852
▁Commandments	-4853
▁architecture	-4854
▁Archaeological	-4855
ga	-4856
me	-4857
na	-4858
zy	-4859
▁μ	-4860
asc	-4861
ees	-4862
lim	-4863
nes	-4864
ror	-4865
the	-4866
▁46	-4867
▁47	-4868
▁Ap	-4869
▁Zr	-4870
▁ps	-4871
▁ri	-4872
▁wr	-4873
ffic	-4874
itiz	-4875
osis	-4876
rows	-4877
well	-4878
▁Bol	-4879
▁Int	-4880
▁Jam	-4881
▁Pak	-4882
▁Sou	-4883
▁Spr	-4884
▁mom	-4885
▁opt	-4886
▁swe	-4887
▁tax	-4888
▁unk	-4889
itage	-4890
regon	-4891
track	-4892
ulate	-4893
▁1929	-4894
▁Budd	-4895
▁Each	-4896
▁Gate	-4897
▁Hart	-4898
▁Nazi	-4899
▁Orig	-4900
▁Rail	-4901
▁Sund	-4902
▁Team	-4903
▁Tong	-4904
▁Wing	-4905
▁emot	-4906
▁exec	-4907
▁fear	-4908
▁flag	-4909
▁paid	-4910
▁path	-4911
▁purs	-4912
▁sand	-4913
▁sort	-4914
▁talk	-4915
▁tend	-4916
▁trou	-4917
illing	-4918
▁Creek	-4919
▁Daily	-4920
▁Dutch	-4921
▁Labor	-4922
▁Offic	-4923
▁Stopp	-4924
▁Treat	-4925
▁chief	-4926
▁daily	-4927
▁focus	-4928
▁highl	-4929
▁ideas	-4930
▁mouth	-4931
▁premi	-4932
▁reign	-4933
▁sales	-4934
▁sched	-4935
▁Dublin	-4936
▁Oregon	-4937
▁Pakist	-4938
▁cannot	-4939
▁deemed	-4940
▁defend	-4941
▁engage	-4942
▁policy	-4943
▁shrine	-4944
▁theory	-4945
▁unique	-4946
cription	-4947
▁Airport	-4948
▁Colonna	-4949
▁arrival	-4950
▁depicts	-4951
▁elected	-4952
▁meeting	-4953
▁opinion	-4954
▁quarter	-4955
▁section	-4956
▁website	-4957
▁wounded	-4958
▁Building	-4959
▁Governor	-4960
▁Research	-4961
▁aviation	-4962
▁churches	-4963
▁creating	-4964
▁invasion	-4965
▁presence	-4966
▁regarded	-4967
▁authority	-4968
▁collapsed	-4969
▁involving	-4970
▁Revolution	-4971
▁designated	-4972
▁determined	-4973
▁occupation	-4974
▁represents	-4975
▁institutions	-4976
▁Entertainment	-4977
BC	-4978
bb	-4979
ks	-4980
mp	-4981
to	-4982
apy	-4983
ban	-4984
cop	-4985
ugh	-4986
ław	-4987
▁41	-4988
▁49	-4989
▁Op	-4990
eral	-4991
etro	-4992
ipal	-4993
irty	-4994
itch	-4995
obon	-4996
oncé	-4997
uzzi	-4998
wich	-4999
wide	-5000
ínyi	-5001
▁150	-5002
▁183	-5003
▁Ast	-5004
▁Ben	-5005
▁CAT	-5006
▁Dou	-5007
▁Dun	-5008
▁Kit	-5009
▁Sub	-5010
▁aim	-5011
▁cho	-5012
▁fal	-5013
▁lot	-5014
▁nor	-5015
▁rhy	-5016
▁sen	-5017
▁wit	-5018
asure	-5019
itall	-5020
ocked	-5021
tical	-5022
worth	-5023
▁1919	-5024
▁1947	-5025
▁Even	-5026
▁Greg	-5027
▁Lake	-5028
▁Live	-5029
▁Mart	-5030
▁Pozz	-5031
▁Prom	-5032
▁Type	-5033
▁Upon	-5034
▁Vice	-5035
▁cool	-5036
▁dict	-5037
▁mint	-5038
▁ones	-5039
▁park	-5040
▁spok	-5041
▁ways	-5042
▁your	-5043
heless	-5044
rative	-5045
vement	-5046
▁Croat	-5047
▁Mount	-5048
▁Steve	-5049
▁birds	-5050
▁broke	-5051
▁brown	-5052
▁dated	-5053
▁drama	-5054
▁equal	-5055
▁grand	-5056
▁model	-5057
▁psych	-5058
▁rough	-5059
▁train	-5060
▁twice	-5061
▁voice	-5062
osexual	-5063
▁Allied	-5064
▁Castle	-5065
▁Commun	-5066
▁Master	-5067
▁Medway	-5068
▁Russia	-5069
▁Sultan	-5070
▁Survey	-5071
▁Valley	-5072
▁Zrínyi	-5073
▁buried	-5074
▁compan	-5075
▁duties	-5076
▁franch	-5077
▁instru	-5078
▁noting	-5079
▁pieces	-5080
▁retire	-5081
▁streak	-5082
▁toward	-5083
▁trying	-5084
obonelli	-5085
ographic	-5086
otherapy	-5087
▁Beyoncé	-5088
▁Company	-5089
▁Journal	-5090
▁Leonard	-5091
▁Theatre	-5092
▁ancient	-5093
▁disease	-5094
▁edition	-5095
▁follows	-5096
▁greatly	-5097
▁opposed	-5098
▁rapidly	-5099
▁reactor	-5100
▁sailors	-5101
▁seconds	-5102
▁serving	-5103
▁student	-5104
▁traffic	-5105
▁Aircraft	-5106
▁Fantuzzi	-5107
▁Stoppani	-5108
▁contains	-5109
▁credited	-5110
▁defended	-5111
▁neutrino	-5112
▁playoffs	-5113
▁purposes	-5114
▁Hospitall	-5115
▁Meanwhile	-5116
▁connected	-5117
▁describes	-5118
▁reception	-5119
▁aerodromes	-5120
▁university	-5121
▁archipelago	-5122
▁Pozzobonelli	-5123
▁commissioned	-5124
▁increasingly	-5125
▁organization	-5126
▁relationships	-5127
TV	-5128
ps	-5129
ana	-5130
bed	-5131
mun	-5132
sis	-5133
sky	-5134
uge	-5135
uit	-5136
win	-5137
xis	-5138
▁98	-5139
▁CO	-5140
alty	-5141
haps	-5142
ider	-5143
isis	-5144
itan	-5145
ouis	-5146
ours	-5147
real	-5148
resp	-5149
▁Jai	-5150
▁Kim	-5151
▁Row	-5152
▁Sav	-5153
▁cos	-5154
▁dru	-5155
▁pow	-5156
aches	-5157
ading	-5158
aling	-5159
gency	-5160
isers	-5161
nthes	-5162
orter	-5163
range	-5164
▁1900	-5165
▁Beau	-5166
▁Feel	-5167
▁Gram	-5168
▁Spec	-5169
▁flat	-5170
▁guid	-5171
▁knew	-5172
▁laid	-5173
▁mask	-5174
▁pull	-5175
▁rear	-5176
▁seat	-5177
▁sust	-5178
▁tact	-5179
▁tail	-5180
▁tale	-5181
▁walk	-5182
▁warn	-5183
▁wars	-5184
atives	-5185
inking	-5186
ounder	-5187
ricket	-5188
▁Album	-5189
▁Chart	-5190
▁Evans	-5191
▁Field	-5192
▁Louis	-5193
▁Radio	-5194
▁Their	-5195
▁acute	-5196
▁comed	-5197
▁comes	-5198
▁defin	-5199
▁depth	-5200
▁doing	-5201
▁grown	-5202
▁horse	-5203
▁joint	-5204
▁kings	-5205
▁leads	-5206
▁ninth	-5207
▁owner	-5208
▁reinf	-5209
▁scale	-5210
▁score	-5211
▁spons	-5212
▁subst	-5213
▁valid	-5214
▁Cecily	-5215
▁Delano	-5216
▁Import	-5217
▁Summer	-5218
▁archer	-5219
▁border	-5220
▁centre	-5221
▁discip	-5222
▁explos	-5223
▁inters	-5224
▁narrow	-5225
▁orders	-5226
▁really	-5227
▁skills	-5228
▁sports	-5229
▁spring	-5230
▁status	-5231
▁survey	-5232
▁tenure	-5233
▁waters	-5234
▁wooden	-5235
ulations	-5236
▁Angeles	-5237
▁Arsenal	-5238
▁Instead	-5239
▁causing	-5240
▁closely	-5241
▁coastal	-5242
▁cruiser	-5243
▁defence	-5244
▁details	-5245
▁emerged	-5246
▁leaders	-5247
▁morning	-5248
▁notable	-5249
▁passing	-5250
▁selling	-5251
▁unknown	-5252
velopment	-5253
▁Addition	-5254
▁Historic	-5255
▁Military	-5256
▁Morrison	-5257
▁believes	-5258
▁commonly	-5259
▁composed	-5260
▁defeated	-5261
▁depicted	-5262
▁distance	-5263
▁expanded	-5264
▁incident	-5265
▁missions	-5266
▁powerful	-5267
▁regional	-5268
▁romantic	-5269
▁Francisco	-5270
▁centuries	-5271
▁direction	-5272
▁franchise	-5273
▁primarily	-5274
▁resulting	-5275
▁therefore	-5276
▁Importance	-5277
▁everything	-5278
▁protection	-5279
▁settlement	-5280
▁supporting	-5281
▁destruction	-5282
▁replacement	-5283
▁territories	-5284
▁Championship	-5285
▁chemotherapy	-5286
▁distribution	-5287
▁headquarters	-5288
▁establishment	-5289
la	-5290
▁−	-5291
ext	-5292
hum	-5293
ias	-5294
iot	-5295
mes	-5296
oul	-5297
rae	-5298
ras	-5299
rec	-5300
war	-5301
▁85	-5302
▁89	-5303
▁ic	-5304
▁ma	-5305
abin	-5306
iles	-5307
iths	-5308
laim	-5309
lets	-5310
rier	-5311
rupt	-5312
yond	-5313
▁Bra	-5314
▁Bur	-5315
▁CAA	-5316
▁Hur	-5317
▁Lar	-5318
▁Men	-5319
▁Now	-5320
▁Pen	-5321
▁Tur	-5322
▁Vol	-5323
▁Zap	-5324
▁rum	-5325
▁say	-5326
▁sky	-5327
▁sle	-5328
▁sun	-5329
abled	-5330
ateur	-5331
irmed	-5332
ivity	-5333
ograp	-5334
right	-5335
▁1945	-5336
▁1982	-5337
▁Andy	-5338
▁Baby	-5339
▁Dest	-5340
▁Fame	-5341
▁Fore	-5342
▁Khan	-5343
▁Maya	-5344
▁Sand	-5345
▁bank	-5346
▁blue	-5347
▁deck	-5348
▁didn	-5349
▁drew	-5350
▁ends	-5351
▁farm	-5352
▁pref	-5353
▁redu	-5354
▁rise	-5355
▁seek	-5356
▁unus	-5357
asters	-5358
fields	-5359
roscop	-5360
▁Chief	-5361
▁Front	-5362
▁Moore	-5363
▁Spain	-5364
▁armor	-5365
▁beach	-5366
▁cards	-5367
▁carry	-5368
▁citiz	-5369
▁crews	-5370
▁demol	-5371
▁gross	-5372
▁layer	-5373
▁panel	-5374
▁recre	-5375
▁rhyth	-5376
▁tombs	-5377
▁union	-5378
ouraged	-5379
▁Andrew	-5380
▁Exeter	-5381
▁Rowson	-5382
▁Stones	-5383
▁Weekly	-5384
▁beyond	-5385
▁claims	-5386
▁debate	-5387
▁degree	-5388
▁escape	-5389
▁height	-5390
▁injury	-5391
▁matter	-5392
▁sought	-5393
▁spores	-5394
▁street	-5395
▁strike	-5396
▁supply	-5397
▁titles	-5398
▁treaty	-5399
▁trials	-5400
ications	-5401
standing	-5402
▁Dynasty	-5403
▁Further	-5404
▁Jackson	-5405
▁appears	-5406
▁applied	-5407
▁charges	-5408
▁defense	-5409
▁ratings	-5410
▁running	-5411
▁setting	-5412
▁someone	-5413
▁Guardian	-5414
▁Longacre	-5415
▁Southern	-5416
▁academic	-5417
▁advanced	-5418
▁baseball	-5419
▁carrying	-5420
▁electric	-5421
▁favorite	-5422
▁operated	-5423
▁opponent	-5424
▁recovery	-5425
▁straight	-5426
▁strength	-5427
▁tropical	-5428
▁versions	-5429
ifications	-5430
▁Victorian	-5431
▁condition	-5432
▁destroyer	-5433
▁executive	-5434
▁implement	-5435
▁musicians	-5436
▁northeast	-5437
▁permanent	-5438
▁responded	-5439
▁returning	-5440
▁sculpture	-5441
▁territory	-5442
▁Operations	-5443
▁background	-5444
▁developing	-5445
▁generation	-5446
▁performing	-5447
▁Development	-5448
▁battleships	-5449
▁characteristics	-5450
FA	-5451
hi	-5452
lo	-5453
▁i	-5454
din	-5455
eed	-5456
lor	-5457
obe	-5458
ris	-5459
ula	-5460
zog	-5461
▁63	-5462
▁64	-5463
▁71	-5464
▁86	-5465
▁Ak	-5466
▁FA	-5467
▁ge	-5468
▁kg	-5469
anes	-5470
eman	-5471
eton	-5472
gend	-5473
iced	-5474
iege	-5475
opol	-5476
zher	-5477
▁174	-5478
▁Alb	-5479
▁Ash	-5480
▁Boy	-5481
▁Bus	-5482
▁Cop	-5483
▁adj	-5484
▁boy	-5485
▁dub	-5486
▁eth	-5487
▁fit	-5488
▁fly	-5489
▁kil	-5490
enses	-5491
erick	-5492
izing	-5493
mouth	-5494
onald	-5495
osure	-5496
ridge	-5497
▁1926	-5498
▁1952	-5499
▁1972	-5500
▁1987	-5501
▁1989	-5502
▁Amun	-5503
▁Arts	-5504
▁Cong	-5505
▁Fall	-5506
▁Goat	-5507
▁Hadd	-5508
▁Jenn	-5509
▁Mass	-5510
▁News	-5511
▁Timb	-5512
▁Walk	-5513
▁clin	-5514
▁cust	-5515
▁doub	-5516
▁drug	-5517
▁evac	-5518
▁fair	-5519
▁hill	-5520
▁join	-5521
▁mort	-5522
▁note	-5523
▁situ	-5524
▁skin	-5525
eption	-5526
iments	-5527
▁Being	-5528
▁Blood	-5529
▁Georg	-5530
▁Italy	-5531
▁Satur	-5532
▁Style	-5533
▁Super	-5534
▁badly	-5535
▁check	-5536
▁chose	-5537
▁color	-5538
▁craft	-5539
▁genre	-5540
▁heard	-5541
▁legal	-5542
▁needs	-5543
▁progn	-5544
▁renew	-5545
▁serve	-5546
▁shore	-5547
▁strik	-5548
▁tests	-5549
▁tourn	-5550
▁trees	-5551
▁tried	-5552
agement	-5553
galiths	-5554
ighters	-5555
zherzog	-5556
▁Daniel	-5557
▁Edward	-5558
▁Modern	-5559
▁actors	-5560
▁awards	-5561
▁bottom	-5562
▁chance	-5563
▁circum	-5564
▁denied	-5565
▁fellow	-5566
▁fields	-5567
▁fought	-5568
▁headed	-5569
▁hosted	-5570
▁letter	-5571
▁offers	-5572
▁patrol	-5573
▁proved	-5574
▁rescue	-5575
▁styles	-5576
▁symmet	-5577
▁titled	-5578
angerous	-5579
entially	-5580
▁Fairies	-5581
▁Haddock	-5582
▁Shortly	-5583
▁Similar	-5584
▁Station	-5585
▁accused	-5586
▁billion	-5587
▁classes	-5588
▁contact	-5589
▁contain	-5590
▁growing	-5591
▁holding	-5592
▁injured	-5593
▁killing	-5594
▁nations	-5595
▁neutral	-5596
▁penalty	-5597
▁reasons	-5598
▁strateg	-5599
▁whereas	-5600
▁Aviation	-5601
▁Critical	-5602
▁Hospital	-5603
▁Montreal	-5604
▁Saturday	-5605
▁accounts	-5606
▁brothers	-5607
▁computer	-5608
▁consists	-5609
▁examples	-5610
▁fragilis	-5611
▁instance	-5612
▁outbreak	-5613
▁province	-5614
▁reagents	-5615
▁transfer	-5616
▁Committee	-5617
▁Erzherzog	-5618
▁Timbaland	-5619
▁artillery	-5620
▁currently	-5621
▁depicting	-5622
▁divisions	-5623
▁extensive	-5624
▁hospitals	-5625
▁immediate	-5626
▁offensive	-5627
▁permitted	-5628
▁remainder	-5629
▁suffering	-5630
▁Laboratory	-5631
▁Lieutenant	-5632
▁expedition	-5633
▁recognized	-5634
▁sculptures	-5635
▁submarines	-5636
▁threatened	-5637
▁publications	-5638
▁archaeologists	-5639
▁representative	-5640
CA	-5641
DS	-5642
án	-5643
ips	-5644
pat	-5645
ply	-5646
uda	-5647
uma	-5648
uri	-5649
yal	-5650
▁59	-5651
▁65	-5652
▁94	-5653
▁Bi	-5654
▁Ca	-5655
▁Do	-5656
▁Dw	-5657
▁Ma	-5658
▁Os	-5659
▁Ra	-5660
▁Ré	-5661
▁et	-5662
acon	-5663
atch	-5664
cies	-5665
elly	-5666
emas	-5667
izes	-5668
mark	-5669
pany	-5670
rect	-5671
uese	-5672
unte	-5673
writ	-5674
▁Bad	-5675
▁Fre	-5676
▁Hon	-5677
▁Hun	-5678
▁Jay	-5679
▁Pop	-5680
▁Ret	-5681
▁Sar	-5682
▁Sil	-5683
▁TOT	-5684
▁Top	-5685
▁bit	-5686
▁bow	-5687
▁bud	-5688
▁fat	-5689
▁obl	-5690
▁ori	-5691
▁sha	-5692
▁sin	-5693
▁som	-5694
▁wre	-5695
aming	-5696
ensus	-5697
hetic	-5698
iable	-5699
iance	-5700
idden	-5701
olved	-5702
omers	-5703
onium	-5704
ormed	-5705
shire	-5706
ushed	-5707
usive	-5708
▁1938	-5709
▁1954	-5710
▁1961	-5711
▁Alan	-5712
▁Also	-5713
▁Bank	-5714
▁Camb	-5715
▁Carl	-5716
▁Crab	-5717
▁Here	-5718
▁Holy	-5719
▁Jean	-5720
▁Wang	-5721
▁dark	-5722
▁elev	-5723
▁else	-5724
▁gift	-5725
▁kept	-5726
▁mess	-5727
▁offs	-5728
▁poly	-5729
▁race	-5730
▁spot	-5731
▁ster	-5732
▁stop	-5733
▁sunk	-5734
▁ward	-5735
dinand	-5736
ipping	-5737
othing	-5738
ranged	-5739
▁Books	-5740
▁Brian	-5741
▁Guide	-5742
▁Party	-5743
▁Polit	-5744
▁Singh	-5745
▁Today	-5746
▁basic	-5747
▁camer	-5748
▁decor	-5749
▁fault	-5750
▁freed	-5751
▁fresh	-5752
▁honor	-5753
▁movie	-5754
▁quake	-5755
▁shape	-5756
▁table	-5757
istered	-5758
ublican	-5759
▁Julian	-5760
▁Muslim	-5761
▁Pagoda	-5762
▁Thakur	-5763
▁Though	-5764
▁Warsaw	-5765
▁Watson	-5766
▁Zapata	-5767
▁advent	-5768
▁budget	-5769
▁cities	-5770
▁expans	-5771
▁hairst	-5772
▁houses	-5773
▁metall	-5774
▁millim	-5775
▁parish	-5776
▁refers	-5777
▁sitcom	-5778
▁spirit	-5779
▁starts	-5780
▁stores	-5781
▁therap	-5782
▁volume	-5783
▁Channel	-5784
▁Classic	-5785
▁Uyghurs	-5786
▁arsenal	-5787
▁assumed	-5788
▁attacks	-5789
▁college	-5790
▁contrib	-5791
▁decline	-5792
▁deliver	-5793
▁denomin	-5794
▁dynasty	-5795
▁funding	-5796
▁islands	-5797
▁protect	-5798
▁speaker	-5799
▁swallow	-5800
▁treated	-5801
▁viewers	-5802
▁willing	-5803
▁zombies	-5804
▁Broadway	-5805
▁Elephant	-5806
▁Monument	-5807
▁accommod	-5808
▁district	-5809
▁election	-5810
▁entirely	-5811
▁strongly	-5812
▁suggests	-5813
▁supposed	-5814
▁teachers	-5815
▁Ferdinand	-5816
▁Hollywood	-5817
▁accompany	-5818
▁certified	-5819
▁collected	-5820
▁emergency	-5821
▁predecess	-5822
▁pregnancy	-5823
▁preserved	-5824
▁purchased	-5825
▁receiving	-5826
▁reference	-5827
▁successor	-5828
▁technical	-5829
▁Portuguese	-5830
▁casualties	-5831
▁criticized	-5832
▁homosexual	-5833
▁soundtrack	-5834
▁storylines	-5835
▁contributed	-5836
▁description	-5837
▁championship	-5838
▁assassination	-5839
▁environmental	-5840
▁opportunities	-5841
▁significantly	-5842
BN	-5843
NS	-5844
PU	-5845
ba	-5846
oT	-5847
oh	-5848
III	-5849
aak	-5850
cle	-5851
don	-5852
edd	-5853
ida	-5854
isf	-5855
oli	-5856
ota	-5857
rik	-5858
▁84	-5859
▁DC	-5860
▁IS	-5861
▁Nf	-5862
▁Wu	-5863
▁da	-5864
▁id	-5865
▁ur	-5866
▁ve	-5867
acht	-5868
atus	-5869
aved	-5870
dney	-5871
glas	-5872
iour	-5873
math	-5874
ners	-5875
oked	-5876
omer	-5877
pson	-5878
rain	-5879
uled	-5880
unch	-5881
usal	-5882
vant	-5883
wall	-5884
▁AoT	-5885
▁Cab	-5886
▁Dam	-5887
▁Due	-5888
▁ERA	-5889
▁Enn	-5890
▁Fam	-5891
▁Law	-5892
▁McC	-5893
▁SMS	-5894
▁arc	-5895
▁cyt	-5896
▁fox	-5897
▁gas	-5898
▁ice	-5899
▁ign	-5900
▁inh	-5901
▁suc	-5902
▁tub	-5903
▁uns	-5904
▁von	-5905
aired	-5906
anned	-5907
emies	-5908
emony	-5909
ician	-5910
ighth	-5911
iling	-5912
inich	-5913
ishes	-5914
istol	-5915
nding	-5916
ostic	-5917
ropol	-5918
uable	-5919
▁1889	-5920
▁1911	-5921
▁2016	-5922
▁Good	-5923
▁Pier	-5924
▁Ryan	-5925
▁Tenn	-5926
▁Trip	-5927
▁calc	-5928
▁diam	-5929
▁excl	-5930
▁fast	-5931
▁fert	-5932
▁item	-5933
▁pack	-5934
▁rebu	-5935
▁rend	-5936
▁shel	-5937
▁shut	-5938
▁soul	-5939
▁stem	-5940
▁twin	-5941
▁unsu	-5942
▁vice	-5943
▁wait	-5944
ailand	-5945
airman	-5946
astrum	-5947
bishop	-5948
itated	-5949
otilla	-5950
ranean	-5951
stream	-5952
talion	-5953
ultane	-5954
urrets	-5955
▁Brown	-5956
▁Claws	-5957
▁Coast	-5958
▁Huron	-5959
▁Magic	-5960
▁Remix	-5961
▁Third	-5962
▁Women	-5963
▁Worth	-5964
▁agree	-5965
▁alleg	-5966
▁begun	-5967
▁cabin	-5968
▁cargo	-5969
▁dates	-5970
▁delay	-5971
▁funds	-5972
▁holds	-5973
▁moder	-5974
▁pound	-5975
▁rever	-5976
▁rival	-5977
▁seems	-5978
▁spore	-5979
▁stalk	-5980
▁turns	-5981
ologist	-5982
ormally	-5983
respond	-5984
sequent	-5985
▁Albums	-5986
▁Charac	-5987
▁Gambia	-5988
▁Monica	-5989
▁Nether	-5990
▁Player	-5991
▁Ulster	-5992
▁argues	-5993
▁branch	-5994
▁choice	-5995
▁covers	-5996
▁encoun	-5997
▁filmed	-5998
▁finish	-5999
▁firing	-6000
▁memory	-6001
▁patron	-6002
▁peaked	-6003
▁powers	-6004
▁preced	-6005
▁resign	-6006
▁sector	-6007
▁senior	-6008
▁shaped	-6009
▁signal	-6010
▁thirty	-6011
▁vessel	-6012
▁writes	-6013
ccessful	-6014
▁Defence	-6015
▁Douglas	-6016
▁Stanley	-6017
▁Studies	-6018
▁Swedish	-6019
▁benefit	-6020
▁briefly	-6021
▁caliber	-6022
▁designs	-6023
▁longest	-6024
▁looking	-6025
▁maximum	-6026
▁neither	-6027
▁powered	-6028
▁protest	-6029
▁reflect	-6030
▁regions	-6031
▁renamed	-6032
▁science	-6033
▁sisters	-6034
▁stories	-6035
▁studied	-6036
▁systems	-6037
▁therapy	-6038
▁turrets	-6039
▁typical	-6040
▁weather	-6041
▁Buddhist	-6042
▁Feelings	-6043
▁Geastrum	-6044
▁anything	-6045
▁ceremony	-6046
▁circumst	-6047
▁constant	-6048
▁disaster	-6049
▁domestic	-6050
▁ensemble	-6051
▁frigates	-6052
▁function	-6053
▁leukemic	-6054
▁possibly	-6055
▁reaching	-6056
▁rejected	-6057
▁substant	-6058
▁survived	-6059
orporation	-6060
▁Hurricane	-6061
▁committee	-6062
▁concerned	-6063
▁criticism	-6064
▁engineers	-6065
▁gradually	-6066
▁household	-6067
▁knowledge	-6068
▁languages	-6069
▁nominated	-6070
▁producing	-6071
▁protected	-6072
▁sustained	-6073
▁worldwide	-6074
▁adaptation	-6075
▁photograph	-6076
▁retirement	-6077
▁Netherlands	-6078
▁Palestinian	-6079
▁combination	-6080
▁communities	-6081
▁documentary	-6082
▁conservation	-6083
VD	-6084
ka	-6085
ien	-6086
igo	-6087
mit	-6088
ned	-6089
och	-6090
oen	-6091
pes	-6092
rel	-6093
ule	-6094
uty	-6095
▁92	-6096
▁97	-6097
▁Ba	-6098
▁Ga	-6099
▁ut	-6100
ardo	-6101
body	-6102
crib	-6103
eper	-6104
ifer	-6105
imal	-6106
inus	-6107
onic	-6108
pton	-6109
udes	-6110
ugby	-6111
▁110	-6112
▁182	-6113
▁Bas	-6114
▁Cub	-6115
▁Dah	-6116
▁Dor	-6117
▁Gra	-6118
▁Joe	-6119
▁Jon	-6120
▁Ker	-6121
▁Lab	-6122
▁Lin	-6123
▁Mic	-6124
▁Nor	-6125
▁Ros	-6126
▁USS	-6127
▁cup	-6128
▁dow	-6129
▁hot	-6130
▁jun	-6131
▁lin	-6132
▁lit	-6133
▁rub	-6134
▁thr	-6135
▁van	-6136
ables	-6137
acity	-6138
alent	-6139
arest	-6140
astic	-6141
ients	-6142
iques	-6143
itled	-6144
mates	-6145
nergy	-6146
oenix	-6147
oming	-6148
oured	-6149
parts	-6150
power	-6151
space	-6152
uting	-6153
▁1861	-6154
▁1964	-6155
▁1975	-6156
▁Bore	-6157
▁Boys	-6158
▁Come	-6159
▁Finn	-6160
▁Gael	-6161
▁Lamb	-6162
▁Marg	-6163
▁Soir	-6164
▁Wall	-6165
▁What	-6166
▁alle	-6167
▁anch	-6168
▁bond	-6169
▁brig	-6170
▁cart	-6171
▁fled	-6172
▁goes	-6173
▁hall	-6174
▁hier	-6175
▁magn	-6176
▁mile	-6177
▁navy	-6178
▁neck	-6179
▁roof	-6180
▁sets	-6181
▁sket	-6182
▁subs	-6183
▁tree	-6184
▁zone	-6185
encies	-6186
icture	-6187
ifying	-6188
ighter	-6189
igital	-6190
infall	-6191
iverse	-6192
ources	-6193
teenth	-6194
▁Adams	-6195
▁Anton	-6196
▁Ennis	-6197
▁Organ	-6198
▁Paris	-6199
▁Prior	-6200
▁Stone	-6201
▁absol	-6202
▁actor	-6203
▁adopt	-6204
▁crime	-6205
▁decre	-6206
▁elder	-6207
▁glass	-6208
▁loyal	-6209
▁motor	-6210
▁paint	-6211
▁recru	-6212
▁royal	-6213
▁signs	-6214
▁spear	-6215
▁voted	-6216
▁wrong	-6217
▁ylide	-6218
borough	-6219
ivalent	-6220
ressing	-6221
ructure	-6222
▁Breese	-6223
▁Darwin	-6224
▁Garden	-6225
▁Giants	-6226
▁Health	-6227
▁Manual	-6228
▁Series	-6229
▁Spring	-6230
▁Treaty	-6231
▁batter	-6232
▁citing	-6233
▁closer	-6234
▁decade	-6235
▁facing	-6236
▁format	-6237
▁gather	-6238
▁income	-6239
▁medium	-6240
▁mental	-6241
▁missed	-6242
▁rarely	-6243
▁revers	-6244
▁select	-6245
▁towers	-6246
▁weight	-6247
▁winner	-6248
ographer	-6249
▁Actress	-6250
▁Bristol	-6251
▁Tennant	-6252
▁absence	-6253
▁article	-6254
▁capture	-6255
▁castles	-6256
▁convers	-6257
▁dismiss	-6258
▁dynamic	-6259
▁engines	-6260
▁enjoyed	-6261
▁exposed	-6262
▁extreme	-6263
▁factors	-6264
▁getting	-6265
▁granted	-6266
▁install	-6267
▁kilomet	-6268
▁machine	-6269
▁museums	-6270
▁nothing	-6271
▁objects	-6272
▁parties	-6273
▁periods	-6274
▁rituals	-6275
▁roughly	-6276
▁signing	-6277
▁singles	-6278
▁starred	-6279
▁synthes	-6280
▁Crusader	-6281
▁Independ	-6282
▁Magazine	-6283
▁Pakistan	-6284
▁Thailand	-6285
▁Virginia	-6286
▁armament	-6287
▁cardinal	-6288
▁explains	-6289
▁governor	-6290
▁obtained	-6291
▁rainfall	-6292
▁relative	-6293
▁requires	-6294
▁shipping	-6295
▁speaking	-6296
▁specimen	-6297
▁starring	-6298
▁Reception	-6299
▁behaviour	-6300
▁considers	-6301
▁defensive	-6302
▁effective	-6303
▁expansion	-6304
▁highlight	-6305
▁promotion	-6306
▁publisher	-6307
▁southeast	-6308
▁stationed	-6309
▁Throughout	-6310
▁carbonaria	-6311
▁consisting	-6312
▁correspond	-6313
▁frequently	-6314
▁industrial	-6315
▁maintained	-6316
▁propaganda	-6317
▁techniques	-6318
▁Corporation	-6319
▁instruments	-6320
▁possibility	-6321
▁agricultural	-6322
▁considerable	-6323
▁intelligence	-6324
▁unsuccessful	-6325
▁architectural	-6326
▁circumstances	-6327
▁controversial	-6328
▁transportation	-6329
ky	-6330
cks	-6331
erc	-6332
gar	-6333
har	-6334
oir	-6335
ora	-6336
rad	-6337
roz	-6338
sin	-6339
▁66	-6340
▁Du	-6341
▁Ep	-6342
▁Ka	-6343
▁Ol	-6344
▁UC	-6345
▁Ze	-6346
▁ce	-6347
agan	-6348
aine	-6349
aked	-6350
aska	-6351
aude	-6352
empo	-6353
gans	-6354
gram	-6355
iary	-6356
ickn	-6357
icop	-6358
igan	-6359
iger	-6360
iper	-6361
ippy	-6362
like	-6363
onym	-6364
reme	-6365
rone	-6366
rowd	-6367
star	-6368
sted	-6369
umes	-6370
wise	-6371
▁130	-6372
▁177	-6373
▁700	-6374
▁Gre	-6375
▁Jun	-6376
▁Les	-6377
▁Liz	-6378
▁MLs	-6379
▁Mir	-6380
▁Ott	-6381
▁Pit	-6382
▁Pot	-6383
▁Son	-6384
▁Ver	-6385
▁Win	-6386
▁Wiz	-6387
▁abn	-6388
▁cul	-6389
▁duo	-6390
▁hyd	-6391
▁lov	-6392
▁orn	-6393
▁san	-6394
▁spo	-6395
▁tur	-6396
agues	-6397
arten	-6398
asury	-6399
enque	-6400
essed	-6401
eters	-6402
going	-6403
hered	-6404
ieval	-6405
iskey	-6406
nance	-6407
olics	-6408
reted	-6409
rophy	-6410
urban	-6411
▁1915	-6412
▁1917	-6413
▁1931	-6414
▁Aden	-6415
▁ISBN	-6416
▁Karl	-6417
▁Magn	-6418
▁Marc	-6419
▁Nash	-6420
▁Once	-6421
▁Pers	-6422
▁Supp	-6423
▁cosm	-6424
▁cycl	-6425
▁data	-6426
▁isol	-6427
▁mist	-6428
▁page	-6429
▁pret	-6430
▁rose	-6431
▁shar	-6432
▁soft	-6433
▁sure	-6434
▁teen	-6435
▁tiss	-6436
▁tonn	-6437
▁tool	-6438
▁tort	-6439
aments	-6440
anning	-6441
orough	-6442
▁Along	-6443
▁Carib	-6444
▁Earth	-6445
▁Horus	-6446
▁Jason	-6447
▁Media	-6448
▁Ocean	-6449
▁Poles	-6450
▁Power	-6451
▁Prism	-6452
▁Sippy	-6453
▁Venge	-6454
▁absor	-6455
▁aired	-6456
▁doesn	-6457
▁downt	-6458
▁enter	-6459
▁false	-6460
▁finds	-6461
▁fixed	-6462
▁guest	-6463
▁knots	-6464
▁limit	-6465
▁marks	-6466
▁medal	-6467
▁noise	-6468
▁occas	-6469
▁oppos	-6470
▁phase	-6471
▁solid	-6472
▁somew	-6473
▁store	-6474
▁surpr	-6475
▁wants	-6476
▁worth	-6477
chestra	-6478
itarian	-6479
▁Arthur	-6480
▁Barrow	-6481
▁Beyond	-6482
▁Boreas	-6483
▁Common	-6484
▁Dwight	-6485
▁Energy	-6486
▁Father	-6487
▁Gaelic	-6488
▁Palace	-6489
▁Trophy	-6490
▁aboard	-6491
▁agency	-6492
▁allows	-6493
▁burial	-6494
▁crisis	-6495
▁culmin	-6496
▁editor	-6497
▁exclud	-6498
▁fitted	-6499
▁inspir	-6500
▁marrow	-6501
▁pagoda	-6502
▁posted	-6503
▁prompt	-6504
▁sacred	-6505
▁safety	-6506
▁sailed	-6507
▁timber	-6508
▁unlike	-6509
▁Lambton	-6510
▁Mediter	-6511
▁Phoenix	-6512
▁Tripoli	-6513
▁advance	-6514
▁amateur	-6515
▁armored	-6516
▁bombard	-6517
▁capable	-6518
▁clearly	-6519
▁constit	-6520
▁consult	-6521
▁content	-6522
▁derived	-6523
▁divorce	-6524
▁freeway	-6525
▁harbour	-6526
▁helicop	-6527
▁methods	-6528
▁passage	-6529
▁typeset	-6530
▁younger	-6531
▁Campbell	-6532
▁Children	-6533
▁Congress	-6534
▁Festival	-6535
▁Infantry	-6536
▁Palenque	-6537
▁Scotland	-6538
▁acquired	-6539
▁airports	-6540
▁capacity	-6541
▁citizens	-6542
▁civilian	-6543
▁concerns	-6544
▁enlisted	-6545
▁exchange	-6546
▁guidance	-6547
▁mainland	-6548
▁minister	-6549
▁negative	-6550
▁operates	-6551
▁politics	-6552
▁suitable	-6553
▁withdraw	-6554
▁Cambridge	-6555
▁Catholics	-6556
▁Frederick	-6557
▁Recording	-6558
▁agreement	-6559
▁assistant	-6560
▁attracted	-6561
▁companies	-6562
▁elections	-6563
▁finishing	-6564
▁interpret	-6565
▁organised	-6566
▁reinforce	-6567
▁secretary	-6568
▁separated	-6569
▁specimens	-6570
▁technique	-6571
▁variation	-6572
▁containing	-6573
▁parliament	-6574
▁percentage	-6575
▁permission	-6576
▁statistics	-6577
▁suggesting	-6578
▁surrounded	-6579
▁differences	-6580
▁opportunity	-6581
▁settlements	-6582
▁symmetrical	-6583
▁temperature	-6584
▁Additionally	-6585
▁representing	-6586
▁Mediterranean	-6587
CO	-6588
oo	-6589
▁×	-6590
amm	-6591
aph	-6592
aza	-6593
bee	-6594
eal	-6595
hat	-6596
ita	-6597
oso	-6598
usz	-6599
yer	-6600
▁09	-6601
▁69	-6602
▁73	-6603
▁91	-6604
▁93	-6605
▁Jr	-6606
ager	-6607
bean	-6608
born	-6609
come	-6610
ehic	-6611
fall	-6612
fare	-6613
hens	-6614
iang	-6615
lymp	-6616
olia	-6617
onto	-6618
orus	-6619
uble	-6620
▁117	-6621
▁900	-6622
▁Alf	-6623
▁Cle	-6624
▁Edu	-6625
▁Far	-6626
▁Gil	-6627
▁Imp	-6628
▁Lee	-6629
▁Mel	-6630
▁Mes	-6631
▁Mov	-6632
▁Mut	-6633
▁Ray	-6634
▁Rod	-6635
▁Stu	-6636
▁Tar	-6637
▁Van	-6638
▁Wal	-6639
▁ash	-6640
▁fle	-6641
▁flo	-6642
▁hip	-6643
▁hol	-6644
▁jet	-6645
▁seg	-6646
ashed	-6647
etics	-6648
ewrit	-6649
inery	-6650
orida	-6651
orror	-6652
othes	-6653
oting	-6654
owing	-6655
rozco	-6656
umbai	-6657
▁1910	-6658
▁1923	-6659
▁1925	-6660
▁1927	-6661
▁1948	-6662
▁1957	-6663
▁1979	-6664
▁Brun	-6665
▁Emmy	-6666
▁Gaga	-6667
▁Hind	-6668
▁Isis	-6669
▁Kenn	-6670
▁Mand	-6671
▁Mort	-6672
▁Niel	-6673
▁Pass	-6674
▁Rhod	-6675
▁Tour	-6676
▁XIII	-6677
▁acid	-6678
▁canc	-6679
▁cold	-6680
▁copy	-6681
▁core	-6682
▁encl	-6683
▁forb	-6684
▁gang	-6685
▁harm	-6686
▁jump	-6687
▁load	-6688
▁maat	-6689
▁nest	-6690
▁push	-6691
▁ring	-6692
▁salv	-6693
atched	-6694
cation	-6695
ceived	-6696
estant	-6697
▁About	-6698
▁Anglo	-6699
▁Every	-6700
▁Found	-6701
▁Jamie	-6702
▁Kevin	-6703
▁Liber	-6704
▁Olymp	-6705
▁Piper	-6706
▁Prize	-6707
▁Techn	-6708
▁Thing	-6709
▁ammun	-6710
▁basin	-6711
▁clean	-6712
▁consc	-6713
▁crown	-6714
▁exerc	-6715
▁faced	-6716
▁forth	-6717
▁grade	-6718
▁graph	-6719
▁manus	-6720
▁nickn	-6721
▁overl	-6722
▁ports	-6723
▁squad	-6724
▁steam	-6725
▁tells	-6726
▁trick	-6727
▁vehic	-6728
▁views	-6729
essions	-6730
igation	-6731
ruption	-6732
▁Antiqu	-6733
▁Comedy	-6734
▁Grammy	-6735
▁Martin	-6736
▁Mumbai	-6737
▁Orozco	-6738
▁adding	-6739
▁adults	-6740
▁animal	-6741
▁campus	-6742
▁cinema	-6743
▁compar	-6744
▁deaths	-6745
▁desire	-6746
▁doctor	-6747
▁gained	-6748
▁manner	-6749
▁moment	-6750
▁option	-6751
▁partly	-6752
▁resear	-6753
▁simply	-6754
▁tonnes	-6755
▁underw	-6756
▁unless	-6757
▁wealth	-6758
ifically	-6759
▁Destroy	-6760
▁Florida	-6761
▁Knights	-6762
▁Montagu	-6763
▁Thaksin	-6764
▁Toronto	-6765
▁Vengeur	-6766
▁Wizards	-6767
▁Writing	-6768
▁archery	-6769
▁authors	-6770
▁battery	-6771
▁conduct	-6772
▁consequ	-6773
▁correct	-6774
▁disturb	-6775
▁failure	-6776
▁females	-6777
▁housing	-6778
▁measure	-6779
▁painted	-6780
▁perhaps	-6781
▁portion	-6782
▁proport	-6783
▁scatter	-6784
▁secured	-6785
▁singing	-6786
▁stopped	-6787
▁survive	-6788
▁teaches	-6789
▁trained	-6790
▁turning	-6791
▁unusual	-6792
asionally	-6793
▁Ministry	-6794
▁Williams	-6795
▁abnormal	-6796
▁accompan	-6797
▁arranged	-6798
▁arrested	-6799
▁chemical	-6800
▁dialogue	-6801
▁diameter	-6802
▁entering	-6803
▁existing	-6804
▁garrison	-6805
▁protests	-6806
▁recalled	-6807
▁repeated	-6808
▁restrict	-6809
▁stations	-6810
▁typewrit	-6811
▁watching	-6812
▁Caribbean	-6813
▁Elephanta	-6814
▁Lightning	-6815
▁airfields	-6816
▁appearing	-6817
▁batteries	-6818
▁candidate	-6819
▁civilians	-6820
▁essential	-6821
▁existence	-6822
▁indicated	-6823
▁intention	-6824
▁measuring	-6825
▁narrative	-6826
▁scheduled	-6827
▁seriously	-6828
▁southwest	-6829
rastructure	-6830
ultaneously	-6831
▁Protestant	-6832
▁ammunition	-6833
▁archbishop	-6834
▁assistance	-6835
▁attributed	-6836
▁criticised	-6837
▁difference	-6838
▁difficulty	-6839
▁equivalent	-6840
▁interested	-6841
▁kilometres	-6842
▁manuscript	-6843
▁recognised	-6844
▁alternative	-6845
▁distributed	-6846
▁institution	-6847
▁incorporated	-6848
▁collaboration	-6849
▁distinguished	-6850
▁responsibility	-6851
AF	-6852
ih	-6853
ii	-6854
xe	-6855
ya	-6856
aha	-6857
bes	-6858
cru	-6859
erg	-6860
iao	-6861
irm	-6862
jan	-6863
mph	-6864
oba	-6865
oyd	-6866
pah	-6867
pri	-6868
ses	-6869
▁82	-6870
▁GM	-6871
▁Ha	-6872
▁Hu	-6873
amos	-6874
cest	-6875
cont	-6876
essa	-6877
gery	-6878
iful	-6879
imer	-6880
omic	-6881
oody	-6882
orer	-6883
pent	-6884
queh	-6885
rase	-6886
roll	-6887
stin	-6888
time	-6889
wing	-6890
▁178	-6891
▁181	-6892
▁BBC	-6893
▁COs	-6894
▁Cap	-6895
▁Cra	-6896
▁DVD	-6897
▁Haw	-6898
▁Hit	-6899
▁Kar	-6900
▁Ken	-6901
▁Leg	-6902
▁Mix	-6903
▁Mot	-6904
▁Nob	-6905
▁Obs	-6906
▁Pam	-6907
▁Pil	-6908
▁Sab	-6909
▁Set	-6910
▁Sri	-6911
▁Syn	-6912
▁Tot	-6913
▁ast	-6914
▁ath	-6915
▁bul	-6916
▁egg	-6917
▁fan	-6918
▁hun	-6919
▁jew	-6920
▁mun	-6921
▁pup	-6922
▁spl	-6923
▁tut	-6924
▁vac	-6925
▁why	-6926
anges	-6927
annah	-6928
apers	-6929
assad	-6930
chers	-6931
ennis	-6932
fully	-6933
ideos	-6934
lando	-6935
neath	-6936
opher	-6937
otype	-6938
peror	-6939
raeus	-6940
rates	-6941
▁1849	-6942
▁1880	-6943
▁1890	-6944
▁1916	-6945
▁1921	-6946
▁1935	-6947
▁1959	-6948
▁Andr	-6949
▁Chas	-6950
▁Coll	-6951
▁Core	-6952
▁Croy	-6953
▁Dark	-6954
▁Horn	-6955
▁Jews	-6956
▁Kent	-6957
▁Lowe	-6958
▁Mach	-6959
▁Matt	-6960
▁Only	-6961
▁Prop	-6962
▁Seas	-6963
▁Tang	-6964
▁Test	-6965
▁Toso	-6966
▁Vert	-6967
▁beam	-6968
▁crim	-6969
▁dies	-6970
▁diet	-6971
▁duty	-6972
▁edge	-6973
▁evil	-6974
▁gets	-6975
▁phen	-6976
▁pric	-6977
▁pure	-6978
▁safe	-6979
▁smok	-6980
▁soil	-6981
▁sons	-6982
ambers	-6983
ampion	-6984
ancing	-6985
friend	-6986
herent	-6987
iction	-6988
inated	-6989
nesota	-6990
rating	-6991
tender	-6992
terson	-6993
veland	-6994
▁Among	-6995
▁Barry	-6996
▁Eight	-6997
▁Rhode	-6998
▁Tessa	-6999
▁Where	-7000
▁ahead	-7001
▁analy	-7002
▁autom	-7003
▁aware	-7004
▁beaut	-7005
▁bones	-7006
▁clock	-7007
▁colon	-7008
▁conqu	-7009
▁dread	-7010
▁forty	-7011
▁happy	-7012
▁hoped	-7013
▁journ	-7014
▁memor	-7015
▁merch	-7016
▁negot	-7017
▁prosp	-7018
▁pursu	-7019
▁ruled	-7020
▁skull	-7021
▁sleep	-7022
▁thing	-7023
▁towns	-7024
▁veget	-7025
▁youth	-7026
amental	-7027
ception	-7028
natural	-7029
utation	-7030
vements	-7031
vention	-7032
▁Advent	-7033
▁Alamos	-7034
▁Cabral	-7035
▁Having	-7036
▁Histor	-7037
▁Police	-7038
▁Sevent	-7039
▁Stuart	-7040
▁Sunday	-7041
▁Sydney	-7042
▁Territ	-7043
▁barrow	-7044
▁bought	-7045
▁camera	-7046
▁devast	-7047
▁filled	-7048
▁horror	-7049
▁legend	-7050
▁listen	-7051
▁motion	-7052
▁mutual	-7053
▁owners	-7054
▁pursue	-7055
▁refuge	-7056
▁remark	-7057
▁resemb	-7058
▁resist	-7059
▁rhythm	-7060
▁riding	-7061
▁sacrif	-7062
▁salary	-7063
▁secure	-7064
▁seeing	-7065
▁showed	-7066
▁stages	-7067
▁termin	-7068
▁thesis	-7069
▁tissue	-7070
▁traded	-7071
▁unrest	-7072
▁useful	-7073
▁viewed	-7074
quehanna	-7075
roscopic	-7076
▁Cricket	-7077
▁Croydon	-7078
▁Kurstin	-7079
▁Orlando	-7080
▁Russell	-7081
▁Singles	-7082
▁Special	-7083
▁Studios	-7084
▁Vertigo	-7085
▁acclaim	-7086
▁alleged	-7087
▁artwork	-7088
▁bombers	-7089
▁bridges	-7090
▁channel	-7091
▁climate	-7092
▁columns	-7093
▁concert	-7094
▁cytogen	-7095
▁descend	-7096
▁disband	-7097
▁drawing	-7098
▁elegans	-7099
▁escaped	-7100
▁existed	-7101
▁failing	-7102
▁hemmema	-7103
▁introdu	-7104
▁joining	-7105
▁keeping	-7106
▁mounted	-7107
▁physics	-7108
▁portico	-7109
▁prefect	-7110
▁reality	-7111
▁repairs	-7112
▁sailing	-7113
▁sulfide	-7114
▁theatre	-7115
▁touring	-7116
▁witness	-7117
▁Astraeus	-7118
▁Heritage	-7119
▁Memorial	-7120
▁Personal	-7121
▁Treasury	-7122
▁admitted	-7123
▁airspace	-7124
▁annually	-7125
▁blockade	-7126
▁bringing	-7127
▁challeng	-7128
▁clothing	-7129
▁counties	-7130
▁deployed	-7131
▁downtown	-7132
▁drinking	-7133
▁feelings	-7134
▁festival	-7135
▁flagship	-7136
▁indicate	-7137
▁memorial	-7138
▁normally	-7139
▁opposite	-7140
▁produces	-7141
▁provides	-7142
▁remarked	-7143
▁remember	-7144
▁somewhat	-7145
▁visitors	-7146
▁writings	-7147
▁Cleveland	-7148
▁Community	-7149
▁Minnesota	-7150
▁Mitchells	-7151
▁Patterson	-7152
▁Princeton	-7153
▁audiences	-7154
▁challenge	-7155
▁contained	-7156
▁decorated	-7157
▁discussed	-7158
▁entertain	-7159
▁establish	-7160
▁estimates	-7161
▁hairstyle	-7162
▁induction	-7163
▁installed	-7164
▁materials	-7165
▁operating	-7166
▁opponents	-7167
▁professor	-7168
▁providing	-7169
▁searching	-7170
▁Foundation	-7171
▁connection	-7172
▁describing	-7173
▁goaltender	-7174
▁husbandman	-7175
▁profession	-7176
▁publishing	-7177
▁subsequent	-7178
▁sufficient	-7179
▁Susquehanna	-7180
▁accompanied	-7181
▁continental	-7182
▁fundamental	-7183
▁interpreted	-7184
▁involvement	-7185
▁nominations	-7186
▁recognition	-7187
▁recommended	-7188
▁accompanying	-7189
▁demonstrated	-7190
▁establishing	-7191
▁universities	-7192
▁administration	-7193
▁infrastructure	-7194
▁reconstruction	-7195
ES	-7196
ki	-7197
nz	-7198
xd	-7199
ASA	-7200
aka	-7201
gen	-7202
kov	-7203
nic	-7204
ode	-7205
uls	-7206
zes	-7207
▁74	-7208
▁83	-7209
▁AA	-7210
▁Fu	-7211
▁IV	-7212
▁Id	-7213
▁Ly	-7214
▁Mw	-7215
▁NY	-7216
▁Zh	-7217
▁sn	-7218
ESCO	-7219
acle	-7220
apse	-7221
cock	-7222
elsh	-7223
elve	-7224
ever	-7225
fire	-7226
gers	-7227
indu	-7228
know	-7229
lers	-7230
load	-7231
mers	-7232
oded	-7233
ooth	-7234
otic	-7235
whel	-7236
yard	-7237
▁114	-7238
▁Bir	-7239
▁Bon	-7240
▁Box	-7241
▁Cor	-7242
▁Dis	-7243
▁Est	-7244
▁GPU	-7245
▁Gem	-7246
▁Hay	-7247
▁Jar	-7248
▁Kau	-7249
▁Kon	-7250
▁Mur	-7251
▁Mys	-7252
▁Oil	-7253
▁Rud	-7254
▁Ten	-7255
▁Xin	-7256
▁alt	-7257
▁bal	-7258
▁gro	-7259
▁nav	-7260
▁orb	-7261
▁ppg	-7262
▁rig	-7263
▁ske	-7264
▁tip	-7265
▁vic	-7266
acles	-7267
anger	-7268
archy	-7269
erves	-7270
icide	-7271
ifest	-7272
illes	-7273
lease	-7274
orrid	-7275
overe	-7276
rants	-7277
reeft	-7278
ureau	-7279
veill	-7280
▁1794	-7281
▁1973	-7282
▁1976	-7283
▁1977	-7284
▁Bang	-7285
▁Belf	-7286
▁Brad	-7287
▁Brig	-7288
▁Cape	-7289
▁Cult	-7290
▁Curt	-7291
▁Dahl	-7292
▁Fisc	-7293
▁Flet	-7294
▁Hard	-7295
▁Init	-7296
▁Kras	-7297
▁Late	-7298
▁Lore	-7299
▁Mack	-7300
▁Mall	-7301
▁Nebr	-7302
▁Phys	-7303
▁Prov	-7304
▁Roll	-7305
▁Tade	-7306
▁Tree	-7307
▁Warn	-7308
▁abol	-7309
▁amid	-7310
▁amph	-7311
▁bull	-7312
▁crop	-7313
▁grey	-7314
▁impl	-7315
▁liqu	-7316
▁onto	-7317
▁phil	-7318
▁reun	-7319
▁snow	-7320
▁soph	-7321
▁styl	-7322
▁trav	-7323
▁trip	-7324
▁unif	-7325
▁warm	-7326
▁wasn	-7327
edding	-7328
ignity	-7329
inally	-7330
orious	-7331
orters	-7332
tation	-7333
urring	-7334
ussion	-7335
utzpah	-7336
▁Blues	-7337
▁Chess	-7338
▁Feast	-7339
▁Hindu	-7340
▁Leban	-7341
▁Mason	-7342
▁Moody	-7343
▁Track	-7344
▁Welsh	-7345
▁Works	-7346
▁acres	-7347
▁agent	-7348
▁calls	-7349
▁crowd	-7350
▁doubt	-7351
▁exact	-7352
▁explo	-7353
▁girls	-7354
▁goods	-7355
▁grain	-7356
▁green	-7357
▁lists	-7358
▁mines	-7359
▁persp	-7360
▁prove	-7361
▁raise	-7362
▁reven	-7363
▁rifle	-7364
▁roads	-7365
▁roots	-7366
▁rules	-7367
▁spect	-7368
▁split	-7369
▁stead	-7370
▁subty	-7371
▁trend	-7372
▁tries	-7373
▁urban	-7374
▁wheel	-7375
angular	-7376
atively	-7377
ocation	-7378
▁Arabic	-7379
▁Centre	-7380
▁Democr	-7381
▁Design	-7382
▁Kreeft	-7383
▁Places	-7384
▁Queens	-7385
▁Return	-7386
▁UNESCO	-7387
▁acknow	-7388
▁advert	-7389
▁assess	-7390
▁assign	-7391
▁beings	-7392
▁caught	-7393
▁commit	-7394
▁cooper	-7395
▁demand	-7396
▁demons	-7397
▁detect	-7398
▁ensure	-7399
▁extens	-7400
▁fallen	-7401
▁formal	-7402
▁housed	-7403
▁manual	-7404
▁opined	-7405
▁quoted	-7406
▁reveal	-7407
▁rising	-7408
▁stable	-7409
▁stands	-7410
▁videos	-7411
▁window	-7412
▁yellow	-7413
▁zombie	-7414
entation	-7415
heastern	-7416
issioned	-7417
▁Belgium	-7418
▁Clement	-7419
▁Croatia	-7420
▁Defense	-7421
▁Fischer	-7422
▁Highway	-7423
▁Library	-7424
▁Officer	-7425
▁Science	-7426
▁Tadeusz	-7427
▁achieve	-7428
▁amounts	-7429
▁classic	-7430
▁context	-7431
▁council	-7432
▁crossed	-7433
▁cutting	-7434
▁decides	-7435
▁erected	-7436
▁estuary	-7437
▁fiction	-7438
▁improve	-7439
▁maskray	-7440
▁massive	-7441
▁missile	-7442
▁operate	-7443
▁partial	-7444
▁persons	-7445
▁promote	-7446
▁putting	-7447
▁receive	-7448
▁replied	-7449
▁violent	-7450
▁wearing	-7451
▁whiskey	-7452
▁windows	-7453
cientious	-7454
veillance	-7455
▁Cornwall	-7456
▁Magnolia	-7457
▁Nebraska	-7458
▁Savannah	-7459
▁Worthing	-7460
▁approved	-7461
▁asserted	-7462
▁breaking	-7463
▁changing	-7464
▁confused	-7465
▁cruisers	-7466
▁describe	-7467
▁detailed	-7468
▁disabled	-7469
▁electron	-7470
▁emphasis	-7471
▁everyone	-7472
▁executed	-7473
▁facility	-7474
▁hundreds	-7475
▁imprison	-7476
▁interior	-7477
▁overwhel	-7478
▁phenomen	-7479
▁programs	-7480
▁railroad	-7481
▁receives	-7482
▁Destroyer	-7483
▁Education	-7484
▁Megaliths	-7485
▁aftermath	-7486
▁cardinals	-7487
▁classical	-7488
▁confirmed	-7489
▁defending	-7490
▁dismissed	-7491
▁displaced	-7492
▁donations	-7493
▁graduated	-7494
▁interests	-7495
▁neighbour	-7496
▁partially	-7497
▁prisoners	-7498
▁proceeded	-7499
▁regularly	-7500
▁requested	-7501
▁resources	-7502
▁sexuality	-7503
▁succeeded	-7504
▁transform	-7505
ampionships	-7506
▁Parliament	-7507
▁Production	-7508
▁Television	-7509
▁acceptable	-7510
▁approached	-7511
▁complement	-7512
▁encouraged	-7513
▁engagement	-7514
▁foundation	-7515
▁historians	-7516
▁laboratory	-7517
▁recordings	-7518
▁registered	-7519
▁reputation	-7520
▁Confederate	-7521
▁agriculture	-7522
▁circulation	-7523
▁immigration	-7524
▁interaction	-7525
▁legislation	-7526
▁maintaining	-7527
▁predecessor	-7528
▁scholarship	-7529
▁Intelligence	-7530
▁independence	-7531
▁instrumental	-7532
▁classification	-7533
HO	-7534
ID	-7535
ds	-7536
yi	-7537
ów	-7538
asy	-7539
can	-7540
hua	-7541
iat	-7542
kra	-7543
nut	-7544
ona	-7545
rep	-7546
tah	-7547
▁78	-7548
▁Dh	-7549
▁Hy	-7550
▁Mr	-7551
▁Oz	-7552
▁Ro	-7553
▁SR	-7554
▁SS	-7555
▁Us	-7556
▁Wy	-7557
▁ec	-7558
abil	-7559
anka	-7560
apes	-7561
asts	-7562
away	-7563
chan	-7564
ears	-7565
engu	-7566
iano	-7567
ilst	-7568
itia	-7569
lyph	-7570
obal	-7571
ocal	-7572
olin	-7573
oned	-7574
osal	-7575
outs	-7576
rage	-7577
rays	-7578
rint	-7579
rous	-7580
uate	-7581
uris	-7582
vard	-7583
▁102	-7584
▁112	-7585
▁118	-7586
▁122	-7587
▁Amy	-7588
▁BCE	-7589
▁Fox	-7590
▁Got	-7591
▁Hel	-7592
▁Imm	-7593
▁Jen	-7594
▁Luc	-7595
▁Mah	-7596
▁McK	-7597
▁Mun	-7598
▁Nam	-7599
▁Pra	-7600
▁Six	-7601
▁Tay	-7602
▁Vat	-7603
▁adm	-7604
▁die	-7605
▁dog	-7606
▁fer	-7607
▁ker	-7608
▁mal	-7609
▁oct	-7610
▁tor	-7611
▁tot	-7612
▁unf	-7613
▁unn	-7614
after	-7615
andal	-7616
anged	-7617
anked	-7618
aples	-7619
ensed	-7620
ersey	-7621
icted	-7622
iller	-7623
ilton	-7624
inced	-7625
ingly	-7626
insey	-7627
ivals	-7628
ivial	-7629
mical	-7630
oguan	-7631
onomy	-7632
otion	-7633
ronze	-7634
water	-7635
▁1759	-7636
▁1862	-7637
▁1895	-7638
▁1922	-7639
▁Anup	-7640
▁Asia	-7641
▁Barb	-7642
▁Disc	-7643
▁EASA	-7644
▁Jazz	-7645
▁Joey	-7646
▁Much	-7647
▁Open	-7648
▁Pigg	-7649
▁Plan	-7650
▁Rear	-7651
▁Sant	-7652
▁Site	-7653
▁Soon	-7654
▁Such	-7655
▁Trib	-7656
▁anth	-7657
▁brut	-7658
▁coal	-7659
▁dece	-7660
▁eyes	-7661
▁fate	-7662
▁feud	-7663
▁golf	-7664
▁gone	-7665
▁gust	-7666
▁here	-7667
▁imag	-7668
▁jobs	-7669
▁lies	-7670
▁loud	-7671
▁odor	-7672
▁plat	-7673
▁prol	-7674
▁rain	-7675
▁scar	-7676
▁scre	-7677
▁sect	-7678
▁shif	-7679
▁tank	-7680
▁tone	-7681
▁vary	-7682
alleys	-7683
atever	-7684
atinum	-7685
atures	-7686
bridge	-7687
ellect	-7688
ellion	-7689
etroit	-7690
ricted	-7691
usalem	-7692
▁Asian	-7693
▁Bened	-7694
▁Chest	-7695
▁Crane	-7696
▁Draft	-7697
▁Garth	-7698
▁Jacob	-7699
▁Jerzy	-7700
▁Kings	-7701
▁Palin	-7702
▁Pengu	-7703
▁Reign	-7704
▁Seven	-7705
▁Swamp	-7706
▁Winds	-7707
▁altar	-7708
▁anger	-7709
▁apart	-7710
▁beats	-7711
▁clubs	-7712
▁deleg	-7713
▁drove	-7714
▁entry	-7715
▁filmm	-7716
▁irreg	-7717
▁items	-7718
▁ocean	-7719
▁overs	-7720
▁persu	-7721
▁plate	-7722
▁scope	-7723
▁sharp	-7724
▁siege	-7725
▁surge	-7726
▁tempo	-7727
▁throw	-7728
▁toler	-7729
▁truth	-7730
▁tubes	-7731
▁vener	-7732
▁wider	-7733
ogether	-7734
ologies	-7735
omerset	-7736
ynastic	-7737
▁Around	-7738
▁Before	-7739
▁Carter	-7740
▁Charts	-7741
▁Curtis	-7742
▁Forest	-7743
▁Indies	-7744
▁Mysore	-7745
▁Nevert	-7746
▁Taylor	-7747
▁Unlike	-7748
▁Within	-7749
▁ancest	-7750
▁banned	-7751
▁burned	-7752
▁charts	-7753
▁chicks	-7754
▁circle	-7755
▁coined	-7756
▁compon	-7757
▁credit	-7758
▁dreadn	-7759
▁ethnic	-7760
▁excess	-7761
▁extent	-7762
▁landed	-7763
▁linked	-7764
▁median	-7765
▁mounts	-7766
▁oldest	-7767
▁overse	-7768
▁phrase	-7769
▁poorly	-7770
▁prefer	-7771
▁provin	-7772
▁reader	-7773
▁render	-7774
▁repair	-7775
▁rounds	-7776
▁satisf	-7777
▁shells	-7778
▁sketch	-7779
▁speech	-7780
▁strict	-7781
▁tempor	-7782
▁virtue	-7783
▁visual	-7784
historic	-7785
▁Belfast	-7786
▁Detroit	-7787
▁Hartley	-7788
▁Islands	-7789
▁Medical	-7790
▁Piggott	-7791
▁Private	-7792
▁Program	-7793
▁Support	-7794
▁Vatican	-7795
▁address	-7796
▁animals	-7797
▁assists	-7798
▁beliefs	-7799
▁consent	-7800
▁defined	-7801
▁dignity	-7802
▁focused	-7803
▁library	-7804
▁listing	-7805
▁locally	-7806
▁marking	-7807
▁myeloid	-7808
▁ongoing	-7809
▁picture	-7810
▁pounder	-7811
▁promise	-7812
▁ranking	-7813
▁revival	-7814
▁shallow	-7815
▁showing	-7816
▁sitting	-7817
▁statues	-7818
▁statute	-7819
▁streets	-7820
▁substit	-7821
▁surgery	-7822
▁trouble	-7823
ordinated	-7824
▁Business	-7825
▁Chutzpah	-7826
▁Fletcher	-7827
▁Mortimer	-7828
▁Register	-7829
▁Shaoguan	-7830
▁Somerset	-7831
▁Thompson	-7832
▁averaged	-7833
▁behavior	-7834
▁claiming	-7835
▁confront	-7836
▁dictator	-7837
▁eighteen	-7838
▁entitled	-7839
▁exposure	-7840
▁formally	-7841
▁frequent	-7842
▁happened	-7843
▁identify	-7844
▁identity	-7845
▁informed	-7846
▁internal	-7847
▁medieval	-7848
▁monitors	-7849
▁musician	-7850
▁openings	-7851
▁oriented	-7852
▁predomin	-7853
▁premiere	-7854
▁realized	-7855
▁releases	-7856
▁retained	-7857
▁struggle	-7858
▁subjects	-7859
▁superior	-7860
▁thinking	-7861
▁whatever	-7862
▁Dangerous	-7863
▁Jerusalem	-7864
▁Similarly	-7865
▁aerodrome	-7866
▁assembled	-7867
▁battlecru	-7868
▁biography	-7869
▁construct	-7870
▁convinced	-7871
▁diagnosis	-7872
▁dominated	-7873
▁earthstar	-7874
▁eliminate	-7875
▁extremely	-7876
▁intellect	-7877
▁irregular	-7878
▁otherwise	-7879
▁portrayed	-7880
▁strategic	-7881
▁surviving	-7882
▁violation	-7883
▁Originally	-7884
▁Republican	-7885
▁Underneath	-7886
▁accomplish	-7887
▁attempting	-7888
▁battleship	-7889
▁classified	-7890
▁commenting	-7891
▁concerning	-7892
▁conclusion	-7893
▁convention	-7894
▁department	-7895
▁dispatched	-7896
▁eliminated	-7897
▁employment	-7898
▁leadership	-7899
▁prohibited	-7900
▁provisions	-7901
▁punishment	-7902
▁references	-7903
▁regulation	-7904
▁theatrical	-7905
▁tournament	-7906
▁Underground	-7907
▁collections	-7908
▁educational	-7909
▁inspiration	-7910
▁operational	-7911
▁preparation	-7912
▁promotional	-7913
▁substantial	-7914
▁temporarily	-7915
▁Nevertheless	-7916
▁accomplished	-7917
▁denomination	-7918
▁occasionally	-7919
▁recreational	-7920
▁significance	-7921
AR	-7922
HL	-7923
NA	-7924
PL	-7925
RI	-7926
gu	-7927
iè	-7928
ja	-7929
ji	-7930
mi	-7931
ét	-7932
ön	-7933
asp	-7934
bec	-7935
bur	-7936
era	-7937
eze	-7938
het	-7939
iob	-7940
ioc	-7941
iph	-7942
lan	-7943
nal	-7944
olt	-7945
opy	-7946
rox	-7947
ugg	-7948
▁03	-7949
▁68	-7950
▁96	-7951
▁99	-7952
▁AL	-7953
▁CB	-7954
▁Cu	-7955
▁Es	-7956
▁Lt	-7957
▁Mu	-7958
▁vo	-7959
Paul	-7960
adic	-7961
asco	-7962
aste	-7963
bles	-7964
burg	-7965
clad	-7966
cona	-7967
cycl	-7968
ella	-7969
eria	-7970
erts	-7971
esty	-7972
etts	-7973
hett	-7974
hire	-7975
host	-7976
ieth	-7977
iris	-7978
lesh	-7979
lete	-7980
lock	-7981
mosp	-7982
olph	-7983
oral	-7984
orms	-7985
ucks	-7986
ulty	-7987
urer	-7988
wick	-7989
▁106	-7990
▁170	-7991
▁Ari	-7992
▁Aud	-7993
▁Bet	-7994
▁Ent	-7995
▁Gen	-7996
▁Get	-7997
▁Hud	-7998
▁Jud	-7999
▁Kap	-8000
▁Lev	-8001
▁Lim	-8002
▁Meh	-8003
▁Oak	-8004
▁RAF	-8005
▁Roy	-8006
▁Run	-8007
▁Sac	-8008
▁Say	-8009
▁Ult	-8010
▁Ven	-8011
▁bin	-8012
▁cha	-8013
▁exh	-8014
▁gle	-8015
▁ham	-8016
▁lat	-8017
▁lob	-8018
▁nut	-8019
▁rac	-8020
▁ram	-8021
▁rob	-8022
▁une	-8023
▁ven	-8024
▁vul	-8025
▁wel	-8026
acent	-8027
achus	-8028
araoh	-8029
arity	-8030
aykov	-8031
chair	-8032
ctors	-8033
eline	-8034
ffman	-8035
icans	-8036
ichol	-8037
icity	-8038
ingal	-8039
iplom	-8040
ogues	-8041
organ	-8042
orrow	-8043
osoph	-8044
oxide	-8045
phone	-8046
rator	-8047
rible	-8048
shore	-8049
swick	-8050
under	-8051
uthor	-8052
▁1870	-8053
▁1877	-8054
▁1924	-8055
▁1928	-8056
▁1934	-8057
▁1949	-8058
▁1953	-8059
▁1955	-8060
▁1983	-8061
▁Anti	-8062
▁Bach	-8063
▁Ball	-8064
▁Bask	-8065
▁Carn	-8066
▁Coty	-8067
▁Emma	-8068
▁Eric	-8069
▁FIFA	-8070
▁Form	-8071
▁Free	-8072
▁Gama	-8073
▁Half	-8074
▁Hans	-8075
▁Homs	-8076
▁Life	-8077
▁List	-8078
▁Neil	-8079
▁Perf	-8080
▁Prof	-8081
▁Reed	-8082
▁Rush	-8083
▁Shop	-8084
▁Then	-8085
▁Thus	-8086
▁Ukra	-8087
▁Whit	-8088
▁adul	-8089
▁answ	-8090
▁boys	-8091
▁card	-8092
▁cong	-8093
▁drop	-8094
▁feed	-8095
▁fill	-8096
▁flow	-8097
▁fold	-8098
▁funk	-8099
▁gall	-8100
▁gamb	-8101
▁gray	-8102
▁hear	-8103
▁hind	-8104
▁logs	-8105
▁mine	-8106
▁perc	-8107
▁plag	-8108
▁pros	-8109
▁sele	-8110
▁sell	-8111
▁stib	-8112
▁thin	-8113
▁toll	-8114
▁worn	-8115
bodies	-8116
ewhere	-8117
ffield	-8118
icians	-8119
ieties	-8120
ivated	-8121
ivered	-8122
ortion	-8123
tering	-8124
urance	-8125
▁Amend	-8126
▁Apost	-8127
▁Beach	-8128
▁Beauf	-8129
▁Belle	-8130
▁Clair	-8131
▁Corey	-8132
▁Emily	-8133
▁Gemma	-8134
▁Globe	-8135
▁Jones	-8136
▁Space	-8137
▁Timor	-8138
▁annex	-8139
▁arsen	-8140
▁bands	-8141
▁blown	-8142
▁breed	-8143
▁consp	-8144
▁decay	-8145
▁depos	-8146
▁doors	-8147
▁farms	-8148
▁feels	-8149
▁flesh	-8150
▁flint	-8151
▁frame	-8152
▁grave	-8153
▁incom	-8154
▁looks	-8155
▁males	-8156
▁mayor	-8157
▁moist	-8158
▁mound	-8159
▁multi	-8160
▁ninet	-8161
▁punct	-8162
▁ranks	-8163
▁regul	-8164
▁repet	-8165
▁ruler	-8166
▁shots	-8167
▁skele	-8168
▁steps	-8169
▁sympt	-8170
▁vital	-8171
▁waves	-8172
illiant	-8173
iscuous	-8174
itively	-8175
mediate	-8176
rations	-8177
rescent	-8178
tenance	-8179
utional	-8180
▁Alfred	-8181
▁Ancona	-8182
▁Beller	-8183
▁Bishop	-8184
▁Chapat	-8185
▁DePaul	-8186
▁Deacon	-8187
▁Family	-8188
▁Harvey	-8189
▁Nichol	-8190
▁Osiris	-8191
▁Square	-8192
▁Studio	-8193
▁Sweden	-8194
▁Uyghur	-8195
▁abroad	-8196
▁actual	-8197
▁appeal	-8198
▁asking	-8199
▁atmosp	-8200
▁attrib	-8201
▁condem	-8202
▁decomm	-8203
▁deprec	-8204
▁diplom	-8205
▁easily	-8206
▁eighth	-8207
▁elabor	-8208
▁exists	-8209
▁mathem	-8210
▁novels	-8211
▁obtain	-8212
▁passes	-8213
▁picked	-8214
▁pulled	-8215
▁racing	-8216
▁rifles	-8217
▁seated	-8218
▁solely	-8219
▁spaced	-8220
▁themed	-8221
▁warned	-8222
atically	-8223
aykovsky	-8224
ergarten	-8225
inations	-8226
isations	-8227
▁Ancient	-8228
▁Emperor	-8229
▁Express	-8230
▁Finland	-8231
▁Finnish	-8232
▁Jenkins	-8233
▁Justice	-8234
▁Mutinus	-8235
▁Raymond	-8236
▁Shaolin	-8237
▁Soviets	-8238
▁Zealand	-8239
▁cabinet	-8240
▁carving	-8241
▁ceremon	-8242
▁chances	-8243
▁clothes	-8244
▁courses	-8245
▁deliber	-8246
▁disrupt	-8247
▁enemies	-8248
▁footage	-8249
▁galleys	-8250
▁journey	-8251
▁kingdom	-8252
▁notably	-8253
▁peaking	-8254
▁princip	-8255
▁ranging	-8256
▁reforms	-8257
▁remixed	-8258
▁returns	-8259
▁reveals	-8260
▁seeking	-8261
▁segment	-8262
▁shrines	-8263
▁spoiled	-8264
▁targets	-8265
▁theater	-8266
▁tourist	-8267
▁volunte	-8268
achusetts	-8269
▁Bachchan	-8270
▁Benedict	-8271
▁Chasuble	-8272
▁Chemical	-8273
▁Civilian	-8274
▁Haitians	-8275
▁Kauffman	-8276
▁Margaret	-8277
▁Nameless	-8278
▁Penguins	-8279
▁Richmond	-8280
▁Scottish	-8281
▁annivers	-8282
▁appropri	-8283
▁attitude	-8284
▁commemor	-8285
▁comments	-8286
▁defences	-8287
▁departed	-8288
▁dominant	-8289
▁fourteen	-8290
▁gambling	-8291
▁habitats	-8292
▁hemmemas	-8293
▁ironclad	-8294
▁isolated	-8295
▁learning	-8296
▁manifest	-8297
▁measures	-8298
▁meetings	-8299
▁merchant	-8300
▁platform	-8301
▁platinum	-8302
▁pleasure	-8303
▁policies	-8304
▁pregnant	-8305
▁products	-8306
▁progress	-8307
▁resemble	-8308
▁resigned	-8309
▁sounding	-8310
▁universe	-8311
▁valuable	-8312
▁warships	-8313
▁Bollywood	-8314
▁Brunswick	-8315
▁Performan	-8316
▁Transport	-8317
▁acknowled	-8318
▁believing	-8319
▁childhood	-8320
▁delivered	-8321
▁depending	-8322
▁emotional	-8323
▁expensive	-8324
▁goddesses	-8325
▁migration	-8326
▁ownership	-8327
▁paintings	-8328
▁perceived	-8329
▁premiered	-8330
▁qualified	-8331
▁rebellion	-8332
▁relocated	-8333
▁seventeen	-8334
▁uncertain	-8335
▁underwent	-8336
▁Adventures	-8337
▁Basketball	-8338
▁Chaykovsky	-8339
▁apparently	-8340
▁categories	-8341
▁constantly	-8342
▁demolition	-8343
▁experiment	-8344
▁impression	-8345
▁journalist	-8346
▁nomination	-8347
▁opposition	-8348
▁resistance	-8349
▁scientific	-8350
▁situations	-8351
▁thereafter	-8352
▁typewriter	-8353
▁Christopher	-8354
▁Hospitaller	-8355
▁Seventeenth	-8356
▁application	-8357
▁composition	-8358
▁controversy	-8359
▁distinctive	-8360
▁engineering	-8361
▁maintenance	-8362
▁observatory	-8363
▁rectangular	-8364
▁translation	-8365
▁Hospitallers	-8366
▁humanitarian	-8367
▁introduction	-8368
▁kindergarten	-8369
▁observations	-8370
▁specifically	-8371
▁supernatural	-8372
▁Massachusetts	-8373
▁investigation	-8374
▁revolutionary	-8375
▁understanding	-8376
▁simultaneously	-8377
GS	-8378
TA	-8379
fe	-8380
no	-8381
uv	-8382
za	-8383
ür	-8384
▁“	-8385
▁₹	-8386
aco	-8387
ada	-8388
asg	-8389
bag	-8390
bal	-8391
bro	-8392
esc	-8393
ito	-8394
ján	-8395
kin	-8396
lyn	-8397
nds	-8398
nzo	-8399
ois	-8400
plo	-8401
rid	-8402
set	-8403
thi	-8404
ucc	-8405
ulg	-8406
▁07	-8407
▁87	-8408
▁Kh	-8409
▁PC	-8410
▁UT	-8411
▁Yu	-8412
▁sq	-8413
▁wa	-8414
agen	-8415
agne	-8416
amin	-8417
ashi	-8418
aten	-8419
avia	-8420
boat	-8421
date	-8422
eloc	-8423
emit	-8424
empl	-8425
heer	-8426
mann	-8427
mons	-8428
more	-8429
onel	-8430
osen	-8431
othe	-8432
rent	-8433
ture	-8434
urst	-8435
▁127	-8436
▁160	-8437
▁240	-8438
▁Aer	-8439
▁Ann	-8440
▁Ath	-8441
▁Att	-8442
▁Bah	-8443
▁CBS	-8444
▁Cas	-8445
▁Cel	-8446
▁Cin	-8447
▁Cow	-8448
▁Dev	-8449
▁Eve	-8450
▁Gal	-8451
▁Hop	-8452
▁Ill	-8453
▁Inc	-8454
▁Kaz	-8455
▁Liv	-8456
▁Lyn	-8457
▁MTV	-8458
▁Mos	-8459
▁NHA	-8460
▁Pan	-8461
▁Rav	-8462
▁Rob	-8463
▁Rom	-8464
▁Sic	-8465
▁Unt	-8466
▁Web	-8467
▁Yam	-8468
▁aro	-8469
▁fur	-8470
▁gat	-8471
▁hat	-8472
▁hyp	-8473
▁rib	-8474
▁sup	-8475
▁tun	-8476
▁urg	-8477
▁vir	-8478
abits	-8479
arell	-8480
asgow	-8481
asted	-8482
ategy	-8483
eared	-8484
emark	-8485
ewise	-8486
graph	-8487
herry	-8488
icate	-8489
icial	-8490
ifies	-8491
igall	-8492
igers	-8493
inary	-8494
liner	-8495
nants	-8496
ocent	-8497
onsin	-8498
ophon	-8499
orján	-8500
ouver	-8501
plete	-8502
uster	-8503
▁1766	-8504
▁1874	-8505
▁1912	-8506
▁1951	-8507
▁1967	-8508
▁1968	-8509
▁Ages	-8510
▁Anth	-8511
▁Aten	-8512
▁Bian	-8513
▁Burn	-8514
▁Comb	-8515
▁Dave	-8516
▁Diss	-8517
▁Down	-8518
▁Gary	-8519
▁Hull	-8520
▁Jane	-8521
▁Lane	-8522
▁Lead	-8523
▁Near	-8524
▁Nick	-8525
▁Pitt	-8526
▁Rand	-8527
▁Rick	-8528
▁Rome	-8529
▁Sign	-8530
▁Tell	-8531
▁Tina	-8532
▁Vers	-8533
▁Well	-8534
▁Wick	-8535
▁Wisc	-8536
▁Your	-8537
▁Zion	-8538
▁ages	-8539
▁beds	-8540
▁bran	-8541
▁buck	-8542
▁clim	-8543
▁diff	-8544
▁empt	-8545
▁fame	-8546
▁gate	-8547
▁grav	-8548
▁heat	-8549
▁hull	-8550
▁ille	-8551
▁infl	-8552
▁lane	-8553
▁lect	-8554
▁lose	-8555
▁mand	-8556
▁mind	-8557
▁none	-8558
▁pled	-8559
▁poll	-8560
▁priv	-8561
▁rich	-8562
▁slip	-8563
▁tell	-8564
▁upgr	-8565
▁wave	-8566
▁wore	-8567
agodas	-8568
icipal	-8569
ielder	-8570
insula	-8571
iobook	-8572
iphany	-8573
istant	-8574
orders	-8575
outing	-8576
rehens	-8577
weight	-8578
▁Adult	-8579
▁Agust	-8580
▁Bobby	-8581
▁Crown	-8582
▁Games	-8583
▁Grant	-8584
▁Jacqu	-8585
▁Micha	-8586
▁Nobel	-8587
▁Point	-8588
▁Quite	-8589
▁Sarah	-8590
▁Vasco	-8591
▁acted	-8592
▁aided	-8593
▁casem	-8594
▁chaos	-8595
▁contr	-8596
▁drums	-8597
▁elite	-8598
▁fifty	-8599
▁gleba	-8600
▁heads	-8601
▁inhib	-8602
▁lands	-8603
▁manip	-8604
▁mobil	-8605
▁opera	-8606
▁papal	-8607
▁potat	-8608
▁quant	-8609
▁rated	-8610
▁renov	-8611
▁sanct	-8612
▁slave	-8613
▁stret	-8614
▁teach	-8615
▁tenth	-8616
▁tools	-8617
▁uncon	-8618
▁watch	-8619
▁wreck	-8620
aration	-8621
iscated	-8622
iveness	-8623
mingham	-8624
umption	-8625
▁Artist	-8626
▁Author	-8627
▁Baltic	-8628
▁Fingal	-8629
▁Flying	-8630
▁Period	-8631
▁Pierre	-8632
▁Scheer	-8633
▁Sports	-8634
▁Strand	-8635
▁Things	-8636
▁Update	-8637
▁aerial	-8638
▁antiqu	-8639
▁armies	-8640
▁borrow	-8641
▁bright	-8642
▁cannon	-8643
▁chosen	-8644
▁eleven	-8645
▁favour	-8646
▁finals	-8647
▁fleets	-8648
▁funded	-8649
▁harbor	-8650
▁junior	-8651
▁leaves	-8652
▁lesser	-8653
▁looked	-8654
▁microl	-8655
▁mixing	-8656
▁movies	-8657
▁pounds	-8658
▁priest	-8659
▁profit	-8660
▁recall	-8661
▁rumors	-8662
▁simple	-8663
▁smooth	-8664
▁talent	-8665
▁terror	-8666
▁tribes	-8667
▁varied	-8668
▁vulner	-8669
▁weapon	-8670
▁worker	-8671
overeign	-8672
▁Adorján	-8673
▁Georgia	-8674
▁Glasgow	-8675
▁Krasnyi	-8676
▁Lorenzo	-8677
▁Marshal	-8678
▁Playing	-8679
▁Railway	-8680
▁Sanford	-8681
▁Weather	-8682
▁aground	-8683
▁altered	-8684
▁arsenic	-8685
▁charted	-8686
▁circuit	-8687
▁closing	-8688
▁contest	-8689
▁elderly	-8690
▁exhaust	-8691
▁faculty	-8692
▁finding	-8693
▁habitat	-8694
▁hostile	-8695
▁ignored	-8696
▁knocked	-8697
▁masters	-8698
▁matters	-8699
▁oversaw	-8700
▁pagodas	-8701
▁paralle	-8702
▁pitched	-8703
▁pushing	-8704
▁reading	-8705
▁removal	-8706
▁renewed	-8707
▁revised	-8708
▁settled	-8709
▁sixteen	-8710
▁surpass	-8711
▁synonym	-8712
▁totally	-8713
▁trivial	-8714
▁unclear	-8715
▁watched	-8716
▁wealthy	-8717
▁Columbia	-8718
▁Jennifer	-8719
▁Jonathan	-8720
▁Mitchell	-8721
▁Princess	-8722
▁Railroad	-8723
▁Regiment	-8724
▁Senators	-8725
▁Township	-8726
▁absolute	-8727
▁adjacent	-8728
▁ambassad	-8729
▁approval	-8730
▁attached	-8731
▁audition	-8732
▁chambers	-8733
▁circular	-8734
▁connects	-8735
▁consolid	-8736
▁criminal	-8737
▁detected	-8738
▁download	-8739
▁exhibits	-8740
▁familiar	-8741
▁literary	-8742
▁moderate	-8743
▁mountain	-8744
▁opposing	-8745
▁ordnance	-8746
▁overlook	-8747
▁patients	-8748
▁printing	-8749
▁proposal	-8750
▁protagon	-8751
▁repaired	-8752
▁restored	-8753
▁reviewed	-8754
▁securing	-8755
▁sequence	-8756
▁speakers	-8757
▁strategy	-8758
▁studying	-8759
▁symptoms	-8760
▁vehicles	-8761
▁youngest	-8762
ploitation	-8763
▁Assistant	-8764
▁Mansfield	-8765
▁Sheffield	-8766
▁Territory	-8767
▁Wisconsin	-8768
▁averaging	-8769
▁battalion	-8770
▁belonging	-8771
▁conscious	-8772
▁decisions	-8773
▁departure	-8774
▁determine	-8775
▁fragments	-8776
▁memorable	-8777
▁mountains	-8778
▁northwest	-8779
▁preparing	-8780
▁prevented	-8781
▁principal	-8782
▁regarding	-8783
▁replacing	-8784
▁similarly	-8785
▁statement	-8786
▁submitted	-8787
▁temporary	-8788
▁trademark	-8789
▁victories	-8790
▁wintering	-8791
▁Birmingham	-8792
▁Characters	-8793
▁Christians	-8794
▁Technology	-8795
▁boundaries	-8796
▁celebrated	-8797
▁colleagues	-8798
▁conference	-8799
▁consistent	-8800
▁corruption	-8801
▁elementary	-8802
▁mainstream	-8803
▁newspapers	-8804
▁percussion	-8805
▁respective	-8806
▁restricted	-8807
▁succession	-8808
▁technology	-8809
▁understood	-8810
▁Independent	-8811
▁Outstanding	-8812
▁anniversary	-8813
▁bombardment	-8814
▁complicated	-8815
▁destination	-8816
▁disappeared	-8817
▁governments	-8818
▁populations	-8819
▁punctuation	-8820
▁researchers	-8821
▁resignation	-8822
▁surrendered	-8823
▁Construction	-8824
▁Organization	-8825
▁collaborated	-8826
▁concentrated	-8827
▁contribution	-8828
▁conventional	-8829
▁difficulties	-8830
▁intellectual	-8831
▁surveillance	-8832
▁characterized	-8833
▁concentration	-8834
50	-8835
Ar	-8836
GB	-8837
Nf	-8838
eu	-8839
hm	-8840
mo	-8841
ye	-8842
▁x	-8843
▁É	-8844
aht	-8845
ala	-8846
ams	-8847
aug	-8848
avk	-8849
ben	-8850
bow	-8851
cho	-8852
cut	-8853
fts	-8854
hol	-8855
kok	-8856
ola	-8857
ova	-8858
put	-8859
rig	-8860
rim	-8861
roc	-8862
rot	-8863
vez	-8864
▁Az	-8865
▁BP	-8866
▁CD	-8867
▁CE	-8868
▁Nc	-8869
▁Oh	-8870
▁Pu	-8871
▁Vi	-8872
ayne	-8873
bled	-8874
book	-8875
case	-8876
esar	-8877
hant	-8878
hent	-8879
icit	-8880
illy	-8881
inos	-8882
lore	-8883
mund	-8884
odox	-8885
ogie	-8886
okes	-8887
olev	-8888
orph	-8889
othy	-8890
rich	-8891
roke	-8892
then	-8893
thew	-8894
uits	-8895
ules	-8896
umar	-8897
urti	-8898
zhou	-8899
▁368	-8900
▁Ach	-8901
▁Aqu	-8902
▁Ava	-8903
▁BDS	-8904
▁Beh	-8905
▁Bou	-8906
▁Bun	-8907
▁CNS	-8908
▁Cam	-8909
▁Cer	-8910
▁Cou	-8911
▁Cox	-8912
▁Cru	-8913
▁DNA	-8914
▁Fab	-8915
▁Had	-8916
▁Kid	-8917
▁Kor	-8918
▁Lic	-8919
▁MGB	-8920
▁McE	-8921
▁Mem	-8922
▁Non	-8923
▁Ord	-8924
▁RCA	-8925
▁Rif	-8926
▁Roc	-8927
▁Sak	-8928
▁Spe	-8929
▁Sue	-8930
▁Tax	-8931
▁UCL	-8932
▁USA	-8933
▁Vai	-8934
▁Who	-8935
▁bes	-8936
▁cov	-8937
▁els	-8938
▁enf	-8939
▁err	-8940
▁gal	-8941
▁haz	-8942
▁lad	-8943
▁nob	-8944
▁odd	-8945
▁pla	-8946
▁sam	-8947
▁sla	-8948
▁tum	-8949
▁unw	-8950
achan	-8951
akers	-8952
antly	-8953
arded	-8954
arson	-8955
court	-8956
eeper	-8957
ehler	-8958
endra	-8959
enged	-8960
ewart	-8961
iants	-8962
icist	-8963
igner	-8964
ilian	-8965
illon	-8966
imens	-8967
imsby	-8968
isive	-8969
jiang	-8970
odore	-8971
omber	-8972
orced	-8973
orial	-8974
ormer	-8975
osion	-8976
rieze	-8977
scape	-8978
sters	-8979
uated	-8980
ulous	-8981
urisd	-8982
urred	-8983
uther	-8984
vious	-8985
where	-8986
▁1840	-8987
▁1850	-8988
▁1863	-8989
▁1894	-8990
▁1902	-8991
▁1905	-8992
▁1908	-8993
▁1932	-8994
▁1933	-8995
▁1956	-8996
▁1958	-8997
▁1963	-8998
▁1971	-8999
▁1974	-9000
▁Aren	-9001
▁Band	-9002
▁Bann	-9003
▁Benn	-9004
▁Buch	-9005
▁Card	-9006
▁Case	-9007
▁Conn	-9008
▁Dean	-9009
▁Dunn	-9010
▁Food	-9011
▁Hold	-9012
▁Jess	-9013
▁Joan	-9014
▁Last	-9015
▁Line	-9016
▁Ling	-9017
▁Mane	-9018
▁Ming	-9019
▁Mole	-9020
▁Note	-9021
▁Publ	-9022
▁Race	-9023
▁Resp	-9024
▁Sans	-9025
▁Surv	-9026
▁Trim	-9027
▁Turk	-9028
▁Unit	-9029
▁Vanc	-9030
▁Ying	-9031
▁Zilt	-9032
▁baht	-9033
▁bare	-9034
▁bear	-9035
▁belt	-9036
▁boom	-9037
▁cens	-9038
▁dens	-9039
▁enth	-9040
▁exch	-9041
▁fine	-9042
▁fulf	-9043
▁garn	-9044
▁hang	-9045
▁hits	-9046
▁incl	-9047
▁kiss	-9048
▁libr	-9049
▁loot	-9050
▁mole	-9051
▁nons	-9052
▁nurs	-9053
▁oars	-9054
▁pawn	-9055
▁pill	-9056
▁poet	-9057
▁reop	-9058
▁roll	-9059
▁sars	-9060
▁slop	-9061
▁stim	-9062
▁tape	-9063
▁tens	-9064
▁terr	-9065
▁traw	-9066
▁turb	-9067
▁vast	-9068
▁vent	-9069
▁vint	-9070
▁vote	-9071
▁wart	-9072
▁wors	-9073
apping	-9074
astity	-9075
avalry	-9076
coming	-9077
cribed	-9078
engers	-9079
estone	-9080
iarism	-9081
itudes	-9082
leased	-9083
oglyph	-9084
omical	-9085
opyxis	-9086
overty	-9087
ported	-9088
raying	-9089
struct	-9090
usions	-9091
▁Allen	-9092
▁Begin	-9093
▁Canon	-9094
▁Death	-9095
▁Dharm	-9096
▁Elect	-9097
▁Ellis	-9098
▁Guang	-9099
▁Hindi	-9100
▁Holid	-9101
▁Isles	-9102
▁Keith	-9103
▁Kumar	-9104
▁Lemon	-9105
▁Lloyd	-9106
▁McKay	-9107
▁Nazis	-9108
▁Peace	-9109
▁Ports	-9110
▁Ryder	-9111
▁Schol	-9112
▁Small	-9113
▁Songs	-9114
▁Sully	-9115
▁Terri	-9116
▁Those	-9117
▁Trust	-9118
▁Upper	-9119
▁Villa	-9120
▁Years	-9121
▁abund	-9122
▁accus	-9123
▁aimed	-9124
▁banks	-9125
▁bears	-9126
▁chest	-9127
▁chrom	-9128
▁conce	-9129
▁costs	-9130
▁crash	-9131
▁dealt	-9132
▁drugs	-9133
▁frust	-9134
▁giant	-9135
▁helps	-9136
▁liked	-9137
▁maneu	-9138
▁megal	-9139
▁myths	-9140
▁nucle	-9141
▁overt	-9142
▁patri	-9143
▁penet	-9144
▁petro	-9145
▁plane	-9146
▁prize	-9147
▁quite	-9148
▁raids	-9149
▁rates	-9150
▁releg	-9151
▁rooms	-9152
▁rugby	-9153
▁scrap	-9154
▁shift	-9155
▁sized	-9156
▁stere	-9157
▁stern	-9158
▁sweep	-9159
▁swept	-9160
▁taxon	-9161
▁touch	-9162
▁wings	-9163
▁yield	-9164
amation	-9165
entions	-9166
fielder	-9167
imental	-9168
lective	-9169
mercial	-9170
orridor	-9171
ossible	-9172
ulating	-9173
▁Agency	-9174
▁Albert	-9175
▁Angelo	-9176
▁Ashbee	-9177
▁Boogie	-9178
▁Bureau	-9179
▁Caesar	-9180
▁Deputy	-9181
▁Donald	-9182
▁Edmund	-9183
▁Fourth	-9184
▁Howard	-9185
▁Hudson	-9186
▁Jarvis	-9187
▁Jersey	-9188
▁Margin	-9189
▁Miller	-9190
▁Morgan	-9191
▁Nights	-9192
▁Observ	-9193
▁Ravana	-9194
▁Reagan	-9195
▁Senate	-9196
▁Social	-9197
▁Sonthi	-9198
▁Steven	-9199
▁Thames	-9200
▁Tigers	-9201
▁Wigner	-9202
▁Wilhel	-9203
▁adjust	-9204
▁advice	-9205
▁agents	-9206
▁agrees	-9207
▁arrang	-9208
▁aspect	-9209
▁astron	-9210
▁beaten	-9211
▁bishop	-9212
▁blacks	-9213
▁cataly	-9214
▁colour	-9215
▁comics	-9216
▁convey	-9217
▁corner	-9218
▁courty	-9219
▁crafts	-9220
▁cruise	-9221
▁desper	-9222
▁distin	-9223
▁fusion	-9224
▁genres	-9225
▁handed	-9226
▁hoping	-9227
▁jurisd	-9228
▁launch	-9229
▁layers	-9230
▁memoir	-9231
▁mobile	-9232
▁models	-9233
▁neighb	-9234
▁occurs	-9235
▁outlaw	-9236
▁planet	-9237
▁plants	-9238
▁praise	-9239
▁promin	-9240
▁pupils	-9241
▁remove	-9242
▁ruling	-9243
▁seemed	-9244
▁shares	-9245
▁spokes	-9246
▁statue	-9247
▁string	-9248
▁termed	-9249
▁tested	-9250
▁timesl	-9251
▁topped	-9252
▁triple	-9253
▁twelve	-9254
▁values	-9255
▁vision	-9256
atherine	-9257
▁Austria	-9258
▁Bangkok	-9259
▁Belgian	-9260
▁Brigade	-9261
▁Dorothy	-9262
▁Fashion	-9263
▁Federal	-9264
▁Grimsby	-9265
▁Lebanon	-9266
▁Machine	-9267
▁Matthew	-9268
▁Mission	-9269
▁Natural	-9270
▁Nielsen	-9271
▁Outside	-9272
▁Poehler	-9273
▁Profess	-9274
▁Spector	-9275
▁Stewart	-9276
▁Telecom	-9277
▁Trinsey	-9278
▁Village	-9279
▁Weekend	-9280
▁Ziltoid	-9281
▁affairs	-9282
▁aggress	-9283
▁amongst	-9284
▁barrier	-9285
▁blocked	-9286
▁closure	-9287
▁comfort	-9288
▁conspir	-9289
▁crosses	-9290
▁dealing	-9291
▁depends	-9292
▁disagre	-9293
▁dispers	-9294
▁dropped	-9295
▁dubious	-9296
▁earning	-9297
▁evident	-9298
▁exactly	-9299
▁fishing	-9300
▁flowers	-9301
▁forcing	-9302
▁forming	-9303
▁gliders	-9304
▁graphic	-9305
▁grounds	-9306
▁handbag	-9307
▁illness	-9308
▁justice	-9309
▁neutron	-9310
▁options	-9311
▁organic	-9312
▁pharaoh	-9313
▁poverty	-9314
▁profile	-9315
▁reagent	-9316
▁rectory	-9317
▁reorgan	-9318
▁replace	-9319
▁rescued	-9320
▁restore	-9321
▁rounded	-9322
▁subcont	-9323
▁supreme	-9324
▁vintage	-9325
▁visible	-9326
▁wartime	-9327
▁wedding	-9328
audeville	-9329
ropolitan	-9330
▁Chairman	-9331
▁Epiphany	-9332
▁Franklin	-9333
▁Geopyxis	-9334
▁Greatest	-9335
▁Maneater	-9336
▁Montagne	-9337
▁Mountain	-9338
▁Official	-9339
▁Strachan	-9340
▁Trimurti	-9341
▁absorbed	-9342
▁animated	-9343
▁basement	-9344
▁captains	-9345
▁comeback	-9346
▁comedies	-9347
▁commands	-9348
▁covering	-9349
▁crossing	-9350
▁deadline	-9351
▁delivery	-9352
▁elephant	-9353
▁engineer	-9354
▁ensuring	-9355
▁equipped	-9356
▁escorted	-9357
▁farmland	-9358
▁fighters	-9359
▁flotilla	-9360
▁formerly	-9361
▁gameplay	-9362
▁gathered	-9363
▁heritage	-9364
▁involves	-9365
▁metallic	-9366
▁minority	-9367
▁missiles	-9368
▁nickname	-9369
▁offering	-9370
▁offshore	-9371
▁opinions	-9372
▁passages	-9373
▁presents	-9374
▁publicly	-9375
▁reconcil	-9376
▁remnants	-9377
▁reversed	-9378
▁settlers	-9379
▁shoulder	-9380
▁striking	-9381
▁subtypes	-9382
▁targeted	-9383
▁terminal	-9384
▁villages	-9385
▁Americans	-9386
▁Cardinals	-9387
▁Initially	-9388
▁Vancouver	-9389
▁abilities	-9390
▁cancelled	-9391
▁celebrity	-9392
▁commanded	-9393
▁confusion	-9394
▁defenders	-9395
▁directors	-9396
▁disbanded	-9397
▁displayed	-9398
▁efficient	-9399
▁elsewhere	-9400
▁exception	-9401
▁execution	-9402
▁forbidden	-9403
▁indicates	-9404
▁initiated	-9405
▁intensity	-9406
▁listeners	-9407
▁machinery	-9408
▁occasions	-9409
▁offerings	-9410
▁perfectly	-9411
▁preceding	-9412
▁preferred	-9413
▁reactions	-9414
▁reflected	-9415
▁relatives	-9416
▁scattered	-9417
▁sophistic	-9418
▁spiritual	-9419
▁squadrons	-9420
▁suspended	-9421
▁synthesis	-9422
▁temperate	-9423
▁virtually	-9424
▁Commanding	-9425
▁Commercial	-9426
▁Cornwallis	-9427
▁Dharmendra	-9428
▁Historical	-9429
▁Ultimately	-9430
▁afterwards	-9431
▁aggressive	-9432
▁calculated	-9433
▁completion	-9434
▁comprehens	-9435
▁convection	-9436
▁definition	-9437
▁discussion	-9438
▁evacuation	-9439
▁hieroglyph	-9440
▁impossible	-9441
▁interviews	-9442
▁megalithic	-9443
▁perception	-9444
▁possession	-9445
▁prognostic	-9446
▁repeatedly	-9447
▁supplement	-9448
▁variations	-9449
▁vulnerable	-9450
▁Confederacy	-9451
▁Performance	-9452
▁Promiscuous	-9453
▁confiscated	-9454
▁consequence	-9455
▁coordinated	-9456
▁effectively	-9457
▁expeditions	-9458
▁helicopters	-9459
▁limitations	-9460
▁participate	-9461
▁personality	-9462
▁perspective	-9463
▁photographs	-9464
▁potentially	-9465
▁Contemporary	-9466
▁Headquarters	-9467
▁acknowledged	-9468
▁associations	-9469
▁consistently	-9470
▁cytogenetics	-9471
▁improvements	-9472
▁subcontinent	-9473
▁abnormalities	-9474
▁characterised	-9475
▁conscientious	-9476
▁corresponding	-9477
▁decommissioned	-9478
▁reinforcements	-9479
OS	-9480
añ	-9481
da	-9482
ev	-9483
nu	-9484
oj	-9485
wa	-9486
ál	-9487
ín	-9488
▁”	-9489
abh	-9490
abs	-9491
anx	-9492
apa	-9493
bar	-9494
bot	-9495
bra	-9496
ehy	-9497
ela	-9498
gon	-9499
iac	-9500
inz	-9501
ira	-9502
kes	-9503
lik	-9504
lix	-9505
nik	-9506
opl	-9507
owa	-9508
pet	-9509
phy	-9510
rez	-9511
sex	-9512
sts	-9513
tes	-9514
ube	-9515
zao	-9516
▁01	-9517
▁02	-9518
▁05	-9519
▁06	-9520
▁58	-9521
▁67	-9522
▁81	-9523
▁AS	-9524
▁Bg	-9525
▁Ci	-9526
▁Cy	-9527
▁Eh	-9528
▁Fé	-9529
▁Ni	-9530
▁Ru	-9531
alin	-9532
amps	-9533
arsh	-9534
arth	-9535
bing	-9536
dden	-9537
face	-9538
horn	-9539
icip	-9540
iece	-9541
ierz	-9542
ismo	-9543
izon	-9544
mary	-9545
mate	-9546
oebe	-9547
omal	-9548
onds	-9549
oons	-9550
opal	-9551
rawn	-9552
rete	-9553
riqu	-9554
room	-9555
scar	-9556
unes	-9557
vens	-9558
vest	-9559
yram	-9560
▁113	-9561
▁Azz	-9562
▁Bac	-9563
▁Ban	-9564
▁Big	-9565
▁Blo	-9566
▁Cai	-9567
▁Don	-9568
▁Fem	-9569
▁Fil	-9570
▁Gib	-9571
▁Kra	-9572
▁Las	-9573
▁Mas	-9574
▁McG	-9575
▁Nat	-9576
▁Occ	-9577
▁Pur	-9578
▁See	-9579
▁Sev	-9580
▁Sid	-9581
▁Sud	-9582
▁Sup	-9583
▁Tac	-9584
▁Tai	-9585
▁Tal	-9586
▁Wit	-9587
▁Yet	-9588
▁buy	-9589
▁cow	-9590
▁doz	-9591
▁dur	-9592
▁flu	-9593
▁gap	-9594
▁isn	-9595
▁mum	-9596
▁rid	-9597
▁sad	-9598
▁scr	-9599
▁sed	-9600
▁sic	-9601
▁wet	-9602
ailed	-9603
aints	-9604
anden	-9605
atics	-9606
avkaz	-9607
aware	-9608
azing	-9609
booba	-9610
burgh	-9611
elage	-9612
embly	-9613
esses	-9614
etery	-9615
ettes	-9616
facts	-9617
hurst	-9618
ibars	-9619
inder	-9620
ishnu	-9621
isław	-9622
itely	-9623
ocaly	-9624
ontin	-9625
oples	-9626
orous	-9627
ourag	-9628
ouses	-9629
overs	-9630
pered	-9631
plant	-9632
raham	-9633
vised	-9634
▁1769	-9635
▁1854	-9636
▁1860	-9637
▁1878	-9638
▁1879	-9639
▁1901	-9640
▁1909	-9641
▁1969	-9642
▁1978	-9643
▁1981	-9644
▁Adri	-9645
▁Algy	-9646
▁Axis	-9647
▁Barn	-9648
▁Boat	-9649
▁Born	-9650
▁Bush	-9651
▁Cave	-9652
▁Coul	-9653
▁Cour	-9654
▁Cred	-9655
▁Fear	-9656
▁GPUs	-9657
▁Hann	-9658
▁Jing	-9659
▁Kail	-9660
▁Kate	-9661
▁Know	-9662
▁Marl	-9663
▁Mayo	-9664
▁Norm	-9665
▁Pett	-9666
▁Read	-9667
▁Rico	-9668
▁Shin	-9669
▁Utah	-9670
▁Want	-9671
▁asks	-9672
▁cite	-9673
▁cure	-9674
▁cuts	-9675
▁easy	-9676
▁eggs	-9677
▁emig	-9678
▁epit	-9679
▁epox	-9680
▁eval	-9681
▁fasc	-9682
▁flex	-9683
▁gain	-9684
▁hint	-9685
▁icon	-9686
▁idol	-9687
▁lord	-9688
▁meat	-9689
▁mild	-9690
▁naut	-9691
▁pier	-9692
▁pine	-9693
▁pope	-9694
▁punk	-9695
▁rejo	-9696
▁salt	-9697
▁sank	-9698
▁sees	-9699
▁sens	-9700
▁span	-9701
▁suit	-9702
▁sung	-9703
▁synd	-9704
▁tide	-9705
▁unre	-9706
▁util	-9707
▁wick	-9708
Arthur	-9709
arello	-9710
asting	-9711
ensing	-9712
eteran	-9713
father	-9714
iatric	-9715
ibious	-9716
igging	-9717
imierz	-9718
irable	-9719
istent	-9720
keeper	-9721
mented	-9722
osomal	-9723
penter	-9724
ranger	-9725
resent	-9726
rosser	-9727
terial	-9728
uclear	-9729
ulates	-9730
vation	-9731
▁Boliv	-9732
▁Clear	-9733
▁Cowan	-9734
▁Exped	-9735
▁Fashi	-9736
▁Heavy	-9737
▁Hitch	-9738
▁Hotel	-9739
▁Image	-9740
▁Large	-9741
▁Livin	-9742
▁Local	-9743
▁Motor	-9744
▁Nacht	-9745
▁Naval	-9746
▁Oscar	-9747
▁Pilot	-9748
▁Plant	-9749
▁PlayS	-9750
▁Relig	-9751
▁Simon	-9752
▁Stock	-9753
▁Tiber	-9754
▁Tracy	-9755
▁abuse	-9756
▁affil	-9757
▁annoy	-9758
▁antim	-9759
▁aside	-9760
▁bench	-9761
▁brood	-9762
▁canal	-9763
▁celeb	-9764
▁cites	-9765
▁const	-9766
▁crops	-9767
▁divin	-9768
▁draws	-9769
▁exile	-9770
▁faces	-9771
▁feral	-9772
▁flame	-9773
▁flown	-9774
▁grace	-9775
▁guide	-9776
▁gusts	-9777
▁humid	-9778
▁ideal	-9779
▁inaug	-9780
▁innov	-9781
▁jewel	-9782
▁judge	-9783
▁legit	-9784
▁liber	-9785
▁loses	-9786
▁lying	-9787
▁magic	-9788
▁medic	-9789
▁melod	-9790
▁pages	-9791
▁pairs	-9792
▁pitch	-9793
▁procl	-9794
▁proof	-9795
▁rails	-9796
▁ready	-9797
▁rises	-9798
▁saved	-9799
▁shoes	-9800
▁sight	-9801
▁smoke	-9802
▁spend	-9803
▁stall	-9804
▁steep	-9805
▁stock	-9806
▁tasks	-9807
▁trial	-9808
▁vault	-9809
emetery	-9810
icherry	-9811
ictions	-9812
idation	-9813
imented	-9814
minster	-9815
ocratic	-9816
raction	-9817
ripping	-9818
ropolis	-9819
tefacts	-9820
usively	-9821
versely	-9822
▁Albion	-9823
▁Allies	-9824
▁Bernis	-9825
▁Bowman	-9826
▁Career	-9827
▁Carson	-9828
▁Danden	-9829
▁Dennis	-9830
▁Dillon	-9831
▁Econom	-9832
▁Flight	-9833
▁Graves	-9834
▁Gregor	-9835
▁Hunter	-9836
▁Kavkaz	-9837
▁Knicks	-9838
▁Kraków	-9839
▁Morris	-9840
▁Newman	-9841
▁Phoebe	-9842
▁Sacred	-9843
▁Scient	-9844
▁Screen	-9845
▁Silver	-9846
▁Stefan	-9847
▁Strong	-9848
▁System	-9849
▁Tacuma	-9850
▁Vishnu	-9851
▁Warren	-9852
▁Wilson	-9853
▁Wright	-9854
▁afford	-9855
▁anyone	-9856
▁apprec	-9857
▁arrive	-9858
▁ashore	-9859
▁athlet	-9860
▁bomber	-9861
▁chorus	-9862
▁courts	-9863
▁depend	-9864
▁driven	-9865
▁enanti	-9866
▁endors	-9867
▁expect	-9868
▁expert	-9869
▁extend	-9870
▁fertil	-9871
▁fresco	-9872
▁glider	-9873
▁global	-9874
▁heroes	-9875
▁honour	-9876
▁iconic	-9877
▁incred	-9878
▁insuff	-9879
▁learns	-9880
▁meters	-9881
▁palace	-9882
▁planes	-9883
▁rulers	-9884
▁sacram	-9885
▁satire	-9886
▁scorer	-9887
▁seized	-9888
▁stayed	-9889
▁storyt	-9890
▁stroke	-9891
▁suburb	-9892
▁sulfur	-9893
▁theore	-9894
▁thinks	-9895
▁thread	-9896
▁traits	-9897
▁trucks	-9898
▁Abraham	-9899
▁Anupong	-9900
▁Arihant	-9901
▁Bernard	-9902
▁Chapman	-9903
▁Credits	-9904
▁Digital	-9905
▁Finally	-9906
▁Gilbert	-9907
▁Holiday	-9908
▁Hornets	-9909
▁Hungary	-9910
▁Jeffrey	-9911
▁Kailash	-9912
▁Liberty	-9913
▁Manager	-9914
▁Normand	-9915
▁Rolling	-9916
▁Sisters	-9917
▁Univers	-9918
▁Yingzao	-9919
▁annexed	-9920
▁annular	-9921
▁barrows	-9922
▁beating	-9923
▁chapter	-9924
▁chronic	-9925
▁dancing	-9926
▁delayed	-9927
▁devoted	-9928
▁digital	-9929
▁discern	-9930
▁diverse	-9931
▁erosion	-9932
▁evening	-9933
▁falling	-9934
▁flanked	-9935
▁forests	-9936
▁freedom	-9937
▁frigate	-9938
▁gliding	-9939
▁gravity	-9940
▁heavier	-9941
▁helping	-9942
▁inhabit	-9943
▁interim	-9944
▁likened	-9945
▁militia	-9946
▁moments	-9947
▁morally	-9948
▁obvious	-9949
▁offices	-9950
▁outages	-9951
▁outlaws	-9952
▁placing	-9953
▁posthum	-9954
▁priests	-9955
▁printed	-9956
▁raising	-9957
▁refuses	-9958
▁reserve	-9959
▁restaur	-9960
▁retreat	-9961
▁revenge	-9962
▁romance	-9963
▁sending	-9964
▁shorter	-9965
▁steamed	-9966
▁tactics	-9967
▁talking	-9968
▁torture	-9969
▁tourism	-9970
▁uniform	-9971
▁unnamed	-9972
▁victims	-9973
ationally	-9974
ibilities	-9975
▁Assembly	-9976
▁Croatian	-9977
▁Flotilla	-9978
▁Hereford	-9979
▁Mehbooba	-9980
▁Michaels	-9981
▁Milligan	-9982
▁Sciences	-9983
▁Universe	-9984
▁adoption	-9985
▁agencies	-9986
▁arriving	-9987
▁artistic	-9988
▁belonged	-9989
▁borrowed	-9990
▁breakout	-9991
▁chairman	-9992
▁champion	-9993
▁chapters	-9994
▁chastity	-9995
▁clinical	-9996
▁composer	-9997
▁conclave	-9998
▁creative	-9999
▁criteria	-10000
▁descript	-10001
▁disorder	-10002
▁donation	-10003
▁drawings	-10004
▁elevated	-10005
▁embarked	-10006
▁encourag	-10007
▁examined	-10008
▁excluded	-10009
▁explicit	-10010
▁garnered	-10011
▁graduate	-10012
▁magician	-10013
▁nautical	-10014
▁neighbor	-10015
▁numbered	-10016
▁parallel	-10017
▁preserve	-10018
▁prompted	-10019
▁purchase	-10020
▁realised	-10021
▁rebounds	-10022
▁reducing	-10023
▁reviewer	-10024
▁spending	-10025
▁suppress	-10026
▁tactical	-10027
▁theaters	-10028
▁thorough	-10029
▁thriller	-10030
▁timeslot	-10031
▁trioxide	-10032
▁variants	-10033
▁vertical	-10034
▁vicinity	-10035
▁withdrew	-10036
▁Admiralty	-10037
▁Azzarello	-10038
▁Beginning	-10039
▁Bucharest	-10040
▁Commodore	-10041
▁Dandenong	-10042
▁Hitchcock	-10043
▁MacArthur	-10044
▁Monuments	-10045
▁Orchestra	-10046
▁Peninsula	-10047
▁Yorkshire	-10048
▁actresses	-10049
▁afterward	-10050
▁arguments	-10051
▁assassins	-10052
▁audiobook	-10053
▁beautiful	-10054
▁condemned	-10055
▁diagnosed	-10056
▁disciples	-10057
▁documents	-10058
▁explosive	-10059
▁favorable	-10060
▁gathering	-10061
▁generated	-10062
▁identical	-10063
▁impressed	-10064
▁landscape	-10065
▁leukemias	-10066
▁listening	-10067
▁mechanism	-10068
▁municipal	-10069
▁neutrinos	-10070
▁objective	-10071
▁philosoph	-10072
▁principle	-10073
▁prognosis	-10074
▁protector	-10075
▁recommend	-10076
▁recurring	-10077
▁remission	-10078
▁rendition	-10079
▁respected	-10080
▁scholarly	-10081
▁sentenced	-10082
▁sponsored	-10083
▁strongest	-10084
▁substrate	-10085
▁swallowed	-10086
▁telephone	-10087
▁twentieth	-10088
▁Expedition	-10089
▁Immemorial	-10090
▁Nachtigall	-10091
▁Portsmouth	-10092
▁Supporting	-10093
▁amphibious	-10094
▁attendants	-10095
▁businesses	-10096
▁candidates	-10097
▁challenged	-10098
▁collective	-10099
▁comprising	-10100
▁conversion	-10101
▁demolished	-10102
▁disappoint	-10103
▁discipline	-10104
▁friendship	-10105
▁industries	-10106
▁objectives	-10107
▁obligation	-10108
▁originated	-10109
▁passengers	-10110
▁positively	-10111
▁properties	-10112
▁provincial	-10113
▁speculated	-10114
▁supporters	-10115
▁undertaken	-10116
▁vegetation	-10117
▁wheelchair	-10118
▁Antiquaries	-10119
▁Description	-10120
▁PlayStation	-10121
▁Tellicherry	-10122
▁considering	-10123
▁encountered	-10124
▁essentially	-10125
▁experiences	-10126
▁extensively	-10127
▁fruitbodies	-10128
▁illustrated	-10129
▁influential	-10130
▁instruction	-10131
▁interchange	-10132
▁interviewed	-10133
▁journalists	-10134
▁manuscripts	-10135
▁millimeters	-10136
▁motherboard	-10137
▁nationalist	-10138
▁overwhelmed	-10139
▁photography	-10140
▁specialized	-10141
▁Ozploitation	-10142
▁Peterborough	-10143
▁intersection	-10144
▁organisation	-10145
▁restrictions	-10146
▁southeastern	-10147
▁communication	-10148
▁consolidation	-10149
▁demonstration	-10150
▁organisations	-10151
▁psychological	-10152
▁sophisticated	-10153
▁interpretation	-10154
▁reconciliation	-10155
HA	-10156
IV	-10157
WA	-10158
do	-10159
kh	-10160
ko	-10161
ti	-10162
xb	-10163
xf	-10164
ía	-10165
▁Æ	-10166
ami	-10167
aya	-10168
bey	-10169
eev	-10170
eor	-10171
ezv	-10172
fle	-10173
für	-10174
hew	-10175
icy	-10176
iga	-10177
imm	-10178
irp	-10179
ked	-10180
ker	-10181
oop	-10182
ped	-10183
top	-10184
utt	-10185
yon	-10186
zed	-10187
ška	-10188
▁04	-10189
▁2.	-10190
▁EU	-10191
▁Ig	-10192
▁MW	-10193
▁OK	-10194
▁Om	-10195
▁Sk	-10196
▁Wł	-10197
▁aw	-10198
▁ba	-10199
▁ho	-10200
▁lb	-10201
Conn	-10202
abel	-10203
adow	-10204
brid	-10205
comb	-10206
dish	-10207
down	-10208
eals	-10209
erto	-10210
fast	-10211
ffen	-10212
ibal	-10213
idal	-10214
ilty	-10215
imus	-10216
inea	-10217
irts	-10218
itas	-10219
itis	-10220
just	-10221
lyde	-10222
nall	-10223
odge	-10224
odus	-10225
oeuv	-10226
olod	-10227
olve	-10228
onts	-10229
orns	-10230
pert	-10231
quis	-10232
rake	-10233
raud	-10234
rees	-10235
rell	-10236
rews	-10237
reya	-10238
ubin	-10239
udad	-10240
ueux	-10241
ught	-10242
uner	-10243
unta	-10244
árez	-10245
önig	-10246
▁111	-10247
▁123	-10248
▁134	-10249
▁140	-10250
▁152	-10251
▁158	-10252
▁172	-10253
▁173	-10254
▁260	-10255
▁275	-10256
▁Any	-10257
▁Arn	-10258
▁Bab	-10259
▁Cur	-10260
▁FAB	-10261
▁Fit	-10262
▁Fle	-10263
▁Fuj	-10264
▁Ins	-10265
▁Jin	-10266
▁Joh	-10267
▁Kal	-10268
▁Key	-10269
▁Maj	-10270
▁Mol	-10271
▁Our	-10272
▁Por	-10273
▁RID	-10274
▁Raf	-10275
▁Ren	-10276
▁Ron	-10277
▁SbF	-10278
▁Sey	-10279
▁Sin	-10280
▁Syl	-10281
▁Tan	-10282
▁UTC	-10283
▁WHO	-10284
▁Why	-10285
▁Yan	-10286
▁Zel	-10287
▁aug	-10288
▁ban	-10289
▁bay	-10290
▁bon	-10291
▁fee	-10292
▁hay	-10293
▁hur	-10294
▁ine	-10295
▁kid	-10296
▁lie	-10297
▁liv	-10298
▁maj	-10299
▁map	-10300
▁net	-10301
▁nic	-10302
▁ped	-10303
▁pul	-10304
▁ray	-10305
▁tap	-10306
▁twe	-10307
▁Æst	-10308
Music	-10309
abeth	-10310
aduri	-10311
agara	-10312
alore	-10313
amely	-10314
anese	-10315
anium	-10316
athor	-10317
atile	-10318
aurus	-10319
autla	-10320
borne	-10321
bourn	-10322
enger	-10323
eries	-10324
etime	-10325
ework	-10326
fürst	-10327
idium	-10328
inson	-10329
itabh	-10330
leans	-10331
letic	-10332
mount	-10333
night	-10334
oking	-10335
ongue	-10336
orean	-10337
otton	-10338
owski	-10339
place	-10340
racks	-10341
rakes	-10342
rence	-10343
rogen	-10344
ropri	-10345
state	-10346
stown	-10347
▁1800	-10348
▁1853	-10349
▁1865	-10350
▁1891	-10351
▁1893	-10352
▁1907	-10353
▁1962	-10354
▁1965	-10355
▁1966	-10356
▁Agre	-10357
▁Anne	-10358
▁Atom	-10359
▁Bart	-10360
▁Bobc	-10361
▁Braz	-10362
▁Cert	-10363
▁Circ	-10364
▁Cork	-10365
▁Crac	-10366
▁Crim	-10367
▁Diam	-10368
▁Does	-10369
▁Done	-10370
▁Expl	-10371
▁Fact	-10372
▁Hamp	-10373
▁Hend	-10374
▁Kurt	-10375
▁Luis	-10376
▁Mech	-10377
▁Mine	-10378
▁Nile	-10379
▁Pear	-10380
▁Plot	-10381
▁Prem	-10382
▁Qing	-10383
▁Raid	-10384
▁Rain	-10385
▁Rash	-10386
▁Ship	-10387
▁Stat	-10388
▁Suba	-10389
▁Tale	-10390
▁Talk	-10391
▁Turn	-10392
▁Wemb	-10393
▁Zomb	-10394
▁acre	-10395
▁aged	-10396
▁bell	-10397
▁blew	-10398
▁boil	-10399
▁bore	-10400
▁caps	-10401
▁clar	-10402
▁daco	-10403
▁debt	-10404
▁demo	-10405
▁dual	-10406
▁dust	-10407
▁epic	-10408
▁fant	-10409
▁fest	-10410
▁flee	-10411
▁forg	-10412
▁funn	-10413
▁furn	-10414
▁genu	-10415
▁hire	-10416
▁hope	-10417
▁judg	-10418
▁keen	-10419
▁laws	-10420
▁legs	-10421
▁lock	-10422
▁mamm	-10423
▁mans	-10424
▁mash	-10425
▁monk	-10426
▁nave	-10427
▁pale	-10428
▁peat	-10429
▁plus	-10430
▁pump	-10431
▁quit	-10432
▁rout	-10433
▁seas	-10434
▁seed	-10435
▁send	-10436
▁sins	-10437
▁spar	-10438
▁spor	-10439
▁torn	-10440
▁wash	-10441
▁whit	-10442
bourne	-10443
earing	-10444
easter	-10445
encing	-10446
enders	-10447
ezvous	-10448
hedral	-10449
icking	-10450
iocese	-10451
ishops	-10452
istons	-10453
olving	-10454
raltar	-10455
rolled	-10456
rophic	-10457
unkers	-10458
wealth	-10459
étueux	-10460
▁Actor	-10461
▁Adapt	-10462
▁Again	-10463
▁André	-10464
▁Arena	-10465
▁Armed	-10466
▁Baker	-10467
▁Barra	-10468
▁Brest	-10469
▁Clyde	-10470
▁Devon	-10471
▁Drunk	-10472
▁Feder	-10473
▁Freya	-10474
▁Giant	-10475
▁Guild	-10476
▁Honor	-10477
▁Hutch	-10478
▁Junyi	-10479
▁Kerry	-10480
▁König	-10481
▁Lanka	-10482
▁Larry	-10483
▁Linga	-10484
▁Marie	-10485
▁Maury	-10486
▁Metal	-10487
▁Monte	-10488
▁Omaha	-10489
▁Payne	-10490
▁Quest	-10491
▁Right	-10492
▁Rugby	-10493
▁Siege	-10494
▁Stand	-10495
▁Stony	-10496
▁Syria	-10497
▁Tourn	-10498
▁Until	-10499
▁Voice	-10500
▁accur	-10501
▁admir	-10502
▁alter	-10503
▁angry	-10504
▁bases	-10505
▁boost	-10506
▁catch	-10507
▁cease	-10508
▁chair	-10509
▁chron	-10510
▁cloud	-10511
▁coord	-10512
▁corps	-10513
▁deals	-10514
▁deton	-10515
▁devil	-10516
▁drown	-10517
▁eagle	-10518
▁enorm	-10519
▁exter	-10520
▁fails	-10521
▁fatal	-10522
▁fewer	-10523
▁fonts	-10524
▁fraud	-10525
▁funny	-10526
▁herds	-10527
▁humor	-10528
▁integ	-10529
▁junta	-10530
▁knows	-10531
▁lacks	-10532
▁liner	-10533
▁mason	-10534
▁merge	-10535
▁mints	-10536
▁monit	-10537
▁morph	-10538
▁motif	-10539
▁oxide	-10540
▁prime	-10541
▁relie	-10542
▁remin	-10543
▁rocks	-10544
▁satir	-10545
▁skill	-10546
▁slots	-10547
▁spawn	-10548
▁stink	-10549
▁stood	-10550
▁sword	-10551
▁tight	-10552
▁tough	-10553
▁unlik	-10554
▁users	-10555
▁usual	-10556
▁verte	-10557
▁weigh	-10558
▁width	-10559
▁worse	-10560
angzhou	-10561
astopol	-10562
ecution	-10563
ilation	-10564
issance	-10565
nington	-10566
ousness	-10567
rington	-10568
unction	-10569
▁Across	-10570
▁Bronze	-10571
▁Census	-10572
▁Ciudad	-10573
▁Copper	-10574
▁Davies	-10575
▁Engine	-10576
▁Exodus	-10577
▁Fallon	-10578
▁Former	-10579
▁Garuda	-10580
▁Geffen	-10581
▁Ground	-10582
▁Guinea	-10583
▁Hathor	-10584
▁Hispan	-10585
▁Howson	-10586
▁Intern	-10587
▁Labour	-10588
▁Labros	-10589
▁Lester	-10590
▁Mackin	-10591
▁Malini	-10592
▁Market	-10593
▁Metall	-10594
▁Method	-10595
▁Michel	-10596
▁Naples	-10597
▁Ottawa	-10598
▁Parker	-10599
▁Petrie	-10600
▁Praška	-10601
▁Prepar	-10602
▁Puerto	-10603
▁Rafael	-10604
▁Rodman	-10605
▁Totten	-10606
▁Turkey	-10607
▁ballad	-10608
▁blocks	-10609
▁breaks	-10610
▁cancel	-10611
▁cattle	-10612
▁causes	-10613
▁conven	-10614
▁couldn	-10615
▁crakes	-10616
▁danger	-10617
▁deeper	-10618
▁deeply	-10619
▁deputy	-10620
▁disemb	-10621
▁encycl	-10622
▁fairly	-10623
▁famine	-10624
▁faster	-10625
▁feudal	-10626
▁garage	-10627
▁guilty	-10628
▁indeed	-10629
▁inland	-10630
▁inning	-10631
▁labour	-10632
▁legacy	-10633
▁lifted	-10634
▁liquid	-10635
▁lowest	-10636
▁lumber	-10637
▁manage	-10638
▁merely	-10639
▁openly	-10640
▁packed	-10641
▁plague	-10642
▁prizes	-10643
▁pushed	-10644
▁ranges	-10645
▁regurg	-10646
▁reward	-10647
▁rubble	-10648
▁ruined	-10649
▁satell	-10650
▁slaves	-10651
▁slowly	-10652
▁soccer	-10653
▁sounds	-10654
▁steals	-10655
▁subsid	-10656
▁sudden	-10657
▁sympat	-10658
▁thirds	-10659
▁throne	-10660
▁tongue	-10661
▁unjust	-10662
▁urgent	-10663
▁whilst	-10664
▁ylides	-10665
ellation	-10666
ervative	-10667
regation	-10668
▁Amitabh	-10669
▁Antonio	-10670
▁Appeals	-10671
▁Atenism	-10672
▁Baibars	-10673
▁Basanti	-10674
▁Bhaduri	-10675
▁Bulloch	-10676
▁Chapter	-10677
▁Colonel	-10678
▁Coulson	-10679
▁Cuautla	-10680
▁Element	-10681
▁Frances	-10682
▁Francis	-10683
▁Gallery	-10684
▁Gallian	-10685
▁Gliders	-10686
▁Grosser	-10687
▁Husband	-10688
▁Jesuits	-10689
▁Licence	-10690
▁Mexican	-10691
▁Olympic	-10692
▁Orleans	-10693
▁Release	-10694
▁Revival	-10695
▁Roberts	-10696
▁Suicide	-10697
▁Trinity	-10698
▁Volunte	-10699
▁Wembley	-10700
▁Without	-10701
▁Zelanti	-10702
▁aftersh	-10703
▁arrives	-10704
▁bearing	-10705
▁biggest	-10706
▁burning	-10707
▁cartoon	-10708
▁centers	-10709
▁charter	-10710
▁closest	-10711
▁compens	-10712
▁confron	-10713
▁consort	-10714
▁continu	-10715
▁creates	-10716
▁cricket	-10717
▁degrees	-10718
▁delight	-10719
▁derives	-10720
▁distant	-10721
▁doctors	-10722
▁dressed	-10723
▁driving	-10724
▁enabled	-10725
▁explain	-10726
▁express	-10727
▁farming	-10728
▁fifteen	-10729
▁forever	-10730
▁founder	-10731
▁gaining	-10732
▁guitars	-10733
▁harvest	-10734
▁illegal	-10735
▁imprint	-10736
▁inflict	-10737
▁innings	-10738
▁invaded	-10739
▁jointly	-10740
▁keepers	-10741
▁lasting	-10742
▁licence	-10743
▁lighter	-10744
▁linking	-10745
▁manoeuv	-10746
▁markers	-10747
▁maximus	-10748
▁message	-10749
▁minimal	-10750
▁nearest	-10751
▁origins	-10752
▁persona	-10753
▁pitcher	-10754
▁pointed	-10755
▁precept	-10756
▁prepare	-10757
▁pursuit	-10758
▁readers	-10759
▁readily	-10760
▁reconna	-10761
▁resurre	-10762
▁reverse	-10763
▁searchl	-10764
▁session	-10765
▁slavery	-10766
▁testing	-10767
▁thereby	-10768
▁trading	-10769
▁trapped	-10770
▁tribute	-10771
▁uranium	-10772
▁variant	-10773
▁waiting	-10774
▁Airports	-10775
▁Combined	-10776
▁Commando	-10777
▁Hamilton	-10778
▁Hartford	-10779
▁Kurfürst	-10780
▁Original	-10781
▁Province	-10782
▁Richards	-10783
▁Scholars	-10784
▁Training	-10785
▁Xinjiang	-10786
▁actively	-10787
▁advertis	-10788
▁arterial	-10789
▁centered	-10790
▁comedian	-10791
▁competed	-10792
▁concerts	-10793
▁concrete	-10794
▁conquest	-10795
▁contrary	-10796
▁damaging	-10797
▁deciding	-10798
▁decisive	-10799
▁deterior	-10800
▁devolved	-10801
▁differed	-10802
▁doctoral	-10803
▁draftees	-10804
▁enclosed	-10805
▁estimate	-10806
▁favoured	-10807
▁financed	-10808
▁governed	-10809
▁grossing	-10810
▁innocent	-10811
▁insisted	-10812
▁landings	-10813
▁machismo	-10814
▁maturity	-10815
▁ordering	-10816
▁ordinary	-10817
▁outlined	-10818
▁princess	-10819
▁promised	-10820
▁reactors	-10821
▁refugees	-10822
▁rendered	-10823
▁reserves	-10824
▁reunited	-10825
▁shortage	-10826
▁skeleton	-10827
▁sometime	-10828
▁stopping	-10829
▁stronger	-10830
▁survival	-10831
▁theories	-10832
▁thoughts	-10833
▁thousand	-10834
▁traveled	-10835
▁ultimate	-10836
▁validity	-10837
▁violated	-10838
▁Æsthetic	-10839
ographical	-10840
ortunately	-10841
worthiness	-10842
▁Agreement	-10843
▁Amendment	-10844
▁Artillery	-10845
▁Battalion	-10846
▁Character	-10847
▁Crusaders	-10848
▁Directors	-10849
▁Executive	-10850
▁Fleetwood	-10851
▁Gibraltar	-10852
▁Gregorian	-10853
▁Hampshire	-10854
▁Impétueux	-10855
▁Squadrons	-10856
▁Stanisław	-10857
▁activists	-10858
▁artefacts	-10859
▁attendant	-10860
▁augmented	-10861
▁brilliant	-10862
▁commandos	-10863
▁component	-10864
▁comprised	-10865
▁concludes	-10866
▁dangerous	-10867
▁declaring	-10868
▁detective	-10869
▁dialogues	-10870
▁employees	-10871
▁exclusive	-10872
▁explosion	-10873
▁fragrance	-10874
▁functions	-10875
▁grassland	-10876
▁libraries	-10877
▁locations	-10878
▁magnitude	-10879
▁ministers	-10880
▁moralitas	-10881
▁movements	-10882
▁objectors	-10883
▁occupying	-10884
▁performer	-10885
▁persisted	-10886
▁questions	-10887
▁radiation	-10888
▁recognize	-10889
▁recruited	-10890
▁sacrifice	-10891
▁selection	-10892
▁stinkhorn	-10893
▁teammates	-10894
▁undertook	-10895
onstruction	-10896
▁Dunnington	-10897
▁Propaganda	-10898
▁Queensland	-10899
▁Sevastopol	-10900
▁acceptance	-10901
▁advantages	-10902
▁ambassador	-10903
▁connecting	-10904
▁continuous	-10905
▁diplomatic	-10906
▁divinities	-10907
▁expression	-10908
▁formations	-10909
▁immigrants	-10910
▁imprisoned	-10911
▁instructed	-10912
▁mechanical	-10913
▁membership	-10914
▁midfielder	-10915
▁phenomenon	-10916
▁plagiarism	-10917
▁preventing	-10918
▁publishers	-10919
▁questioned	-10920
▁reflecting	-10921
▁rendezvous	-10922
▁scientists	-10923
▁substitute	-10924
▁swallowing	-10925
▁traditions	-10926
▁translated	-10927
▁transplant	-10928
▁understand	-10929
▁Composition	-10930
▁Copperfield	-10931
▁Dangerously	-10932
▁Labrosaurus	-10933
▁accommodate	-10934
▁appointment	-10935
▁appropriate	-10936
▁challenging	-10937
▁chromosomal	-10938
▁commercials	-10939
▁competitive	-10940
▁connections	-10941
▁countryside	-10942
▁declaration	-10943
▁demographic	-10944
▁disturbance	-10945
▁examination	-10946
▁experiments	-10947
▁exploration	-10948
▁implemented	-10949
▁outstanding	-10950
▁prehistoric	-10951
▁probability	-10952
▁psychiatric	-10953
▁restoration	-10954
▁speculation	-10955
▁tournaments	-10956
▁typesetting	-10957
▁Beaufighters	-10958
▁Christianity	-10959
▁Commonwealth	-10960
▁Conservation	-10961
▁availability	-10962
▁collectively	-10963
▁combinations	-10964
▁compositions	-10965
▁coordination	-10966
▁historically	-10967
▁insufficient	-10968
▁presentation	-10969
▁requirements	-10970
▁comprehensive	-10971
▁entertainment	-10972
▁fictionalized	-10973
▁Transportation	-10974
▁battlecruisers	-10975
▁reconnaissance	-10976
▁representation	-10977
▁differentiation	-10978
▁representatives	-10979
69	-10980
BE	-10981
GN	-10982
ca	-10983
cu	-10984
ns	-10985
än	-10986
ón	-10987
▁→	-10988
aic	-10989
aja	-10990
aki	-10991
alg	-10992
ari	-10993
ctr	-10994
ena	-10995
err	-10996
gae	-10997
hiz	-10998
icz	-10999
ili	-11000
irk	-11001
isp	-11002
jad	-11003
kan	-11004
kef	-11005
los	-11006
low	-11007
mns	-11008
oan	-11009
obl	-11010
occ	-11011
oma	-11012
osl	-11013
osy	-11014
oto	-11015
rud	-11016
run	-11017
rus	-11018
sar	-11019
ska	-11020
tym	-11021
uis	-11022
unc	-11023
upa	-11024
upp	-11025
▁Bc	-11026
▁CN	-11027
▁FM	-11028
▁KI	-11029
▁MM	-11030
▁Mé	-11031
▁Rb	-11032
▁Sa	-11033
▁Ur	-11034
▁WS	-11035
▁XV	-11036
Work	-11037
acts	-11038
adin	-11039
aeus	-11040
aman	-11041
amil	-11042
ampa	-11043
anea	-11044
anni	-11045
aren	-11046
asia	-11047
beat	-11048
bery	-11049
burn	-11050
char	-11051
chem	-11052
crie	-11053
dong	-11054
ehaw	-11055
ello	-11056
emen	-11057
esse	-11058
eted	-11059
hale	-11060
hend	-11061
humi	-11062
idel	-11063
idia	-11064
igen	-11065
iley	-11066
imid	-11067
ione	-11068
ishv	-11069
isms	-11070
itän	-11071
ktop	-11072
lake	-11073
lies	-11074
lude	-11075
nova	-11076
nuts	-11077
odes	-11078
onal	-11079
opra	-11080
orma	-11081
oust	-11082
oyle	-11083
path	-11084
plex	-11085
rams	-11086
rels	-11087
rips	-11088
rome	-11089
seud	-11090
tale	-11091
trak	-11092
ucco	-11093
udor	-11094
umer	-11095
varn	-11096
vine	-11097
ynes	-11098
ytic	-11099
éval	-11100
▁105	-11101
▁119	-11102
▁121	-11103
▁124	-11104
▁171	-11105
▁18-	-11106
▁220	-11107
▁350	-11108
▁Alm	-11109
▁Aut	-11110
▁Bes	-11111
▁Bor	-11112
▁Det	-11113
▁Din	-11114
▁Exc	-11115
▁Ext	-11116
▁Fly	-11117
▁Gaz	-11118
▁Gro	-11119
▁Gál	-11120
▁IGN	-11121
▁IHL	-11122
▁Ian	-11123
▁Ign	-11124
▁Ike	-11125
▁Inv	-11126
▁Joy	-11127
▁Jup	-11128
▁Let	-11129
▁Lis	-11130
▁McD	-11131
▁Nos	-11132
▁Orn	-11133
▁Pas	-11134
▁Pel	-11135
▁Ply	-11136
▁Rap	-11137
▁Rey	-11138
▁Rog	-11139
▁Rép	-11140
▁Tel	-11141
▁Tup	-11142
▁Typ	-11143
▁Wis	-11144
▁aft	-11145
▁avo	-11146
▁bot	-11147
▁cry	-11148
▁dat	-11149
▁dig	-11150
▁fil	-11151
▁joy	-11152
▁mir	-11153
▁mys	-11154
▁nep	-11155
▁nom	-11156
▁pet	-11157
▁ric	-11158
▁squ	-11159
▁tin	-11160
▁unh	-11161
▁upr	-11162
▁vig	-11163
Works	-11164
adium	-11165
adows	-11166
agers	-11167
agree	-11168
aimed	-11169
anion	-11170
anthe	-11171
aping	-11172
arant	-11173
arter	-11174
artet	-11175
ayers	-11176
backs	-11177
bound	-11178
cular	-11179
dress	-11180
emics	-11181
erary	-11182
erver	-11183
ester	-11184
front	-11185
hoods	-11186
iatic	-11187
icals	-11188
icing	-11189
ifeng	-11190
ighed	-11191
isely	-11192
izons	-11193
ntire	-11194
odied	-11195
olves	-11196
omsky	-11197
onega	-11198
orces	-11199
orney	-11200
orted	-11201
osely	-11202
ospel	-11203
ourse	-11204
point	-11205
quate	-11206
raver	-11207
reced	-11208
riers	-11209
rific	-11210
ropod	-11211
urrey	-11212
utely	-11213
vings	-11214
yards	-11215
ysław	-11216
▁1170	-11217
▁1761	-11218
▁1856	-11219
▁1859	-11220
▁1869	-11221
▁1875	-11222
▁1876	-11223
▁1881	-11224
▁Anat	-11225
▁Away	-11226
▁Balk	-11227
▁Base	-11228
▁Bell	-11229
▁Beth	-11230
▁Bird	-11231
▁Bomb	-11232
▁Carr	-11233
▁Chel	-11234
▁Clay	-11235
▁Cock	-11236
▁Crex	-11237
▁Earl	-11238
▁Eliz	-11239
▁Farm	-11240
▁Flem	-11241
▁Flow	-11242
▁Ford	-11243
▁Fres	-11244
▁Gill	-11245
▁Giov	-11246
▁Gods	-11247
▁Gord	-11248
▁Hurt	-11249
▁Isle	-11250
▁Jama	-11251
▁Jeun	-11252
▁Josh	-11253
▁Lanc	-11254
▁Leop	-11255
▁Levi	-11256
▁Liam	-11257
▁Lomb	-11258
▁Lost	-11259
▁Mahé	-11260
▁Mail	-11261
▁Mang	-11262
▁Maur	-11263
▁Merc	-11264
▁Moth	-11265
▁Mudd	-11266
▁Name	-11267
▁Nike	-11268
▁Path	-11269
▁Pola	-11270
▁Pred	-11271
▁Raph	-11272
▁Sala	-11273
▁Snow	-11274
▁Soap	-11275
▁Sout	-11276
▁Tatt	-11277
▁Todd	-11278
▁Tuck	-11279
▁Wald	-11280
▁Webb	-11281
▁Wies	-11282
▁Wolf	-11283
▁bene	-11284
▁blow	-11285
▁bold	-11286
▁cere	-11287
▁coat	-11288
▁conj	-11289
▁cous	-11290
▁dent	-11291
▁dish	-11292
▁eart	-11293
▁flot	-11294
▁fron	-11295
▁glee	-11296
▁hide	-11297
▁huge	-11298
▁indu	-11299
▁jack	-11300
▁lion	-11301
▁lust	-11302
▁maps	-11303
▁myst	-11304
▁oath	-11305
▁oral	-11306
▁pace	-11307
▁pest	-11308
▁pool	-11309
▁prin	-11310
▁pron	-11311
▁puck	-11312
▁pupp	-11313
▁rape	-11314
▁rook	-11315
▁rupt	-11316
▁scra	-11317
▁seam	-11318
▁sexy	-11319
▁shop	-11320
▁spur	-11321
▁stip	-11322
▁subt	-11323
▁tent	-11324
▁ther	-11325
▁tick	-11326
▁ties	-11327
▁vass	-11328
▁yard	-11329
abbath	-11330
abhumi	-11331
advant	-11332
agonal	-11333
azines	-11334
boards	-11335
cially	-11336
crieff	-11337
emitic	-11338
essing	-11339
esters	-11340
iating	-11341
icious	-11342
iscent	-11343
levard	-11344
luence	-11345
omorph	-11346
ourage	-11347
perors	-11348
rances	-11349
reated	-11350
rities	-11351
season	-11352
sworth	-11353
tenham	-11354
thened	-11355
writer	-11356
▁Allan	-11357
▁Amjad	-11358
▁Aside	-11359
▁Ather	-11360
▁Bowie	-11361
▁Built	-11362
▁Canal	-11363
▁Carlo	-11364
▁Chaak	-11365
▁Chand	-11366
▁Chong	-11367
▁Craig	-11368
▁Dance	-11369
▁Ducks	-11370
▁Edith	-11371
▁Entry	-11372
▁Films	-11373
▁Félix	-11374
▁Ghost	-11375
▁Hamas	-11376
▁Harry	-11377
▁Jimmy	-11378
▁Kelly	-11379
▁Lakes	-11380
▁Liter	-11381
▁Loire	-11382
▁Lower	-11383
▁Mario	-11384
▁Medal	-11385
▁Merry	-11386
▁Movie	-11387
▁Reich	-11388
▁Rifle	-11389
▁Rubin	-11390
▁Rules	-11391
▁Scapa	-11392
▁Serge	-11393
▁Somet	-11394
▁Staff	-11395
▁Still	-11396
▁Storm	-11397
▁Tampa	-11398
▁Tiger	-11399
▁Total	-11400
▁Tudor	-11401
▁Twent	-11402
▁Vienn	-11403
▁Warne	-11404
▁aging	-11405
▁alien	-11406
▁angle	-11407
▁anime	-11408
▁apply	-11409
▁arose	-11410
▁artif	-11411
▁atrox	-11412
▁audio	-11413
▁beast	-11414
▁bests	-11415
▁blend	-11416
▁brack	-11417
▁brand	-11418
▁cable	-11419
▁calib	-11420
▁clust	-11421
▁dream	-11422
▁dress	-11423
▁drunk	-11424
▁dwell	-11425
▁dying	-11426
▁eaves	-11427
▁elbow	-11428
▁empty	-11429
▁encom	-11430
▁enlar	-11431
▁error	-11432
▁femin	-11433
▁fever	-11434
▁filed	-11435
▁ghett	-11436
▁grows	-11437
▁lanes	-11438
▁lingu	-11439
▁loved	-11440
▁lymph	-11441
▁popul	-11442
▁price	-11443
▁pseud	-11444
▁quote	-11445
▁rains	-11446
▁realm	-11447
▁recip	-11448
▁repro	-11449
▁sails	-11450
▁seism	-11451
▁seize	-11452
▁shaft	-11453
▁shall	-11454
▁smugg	-11455
▁spite	-11456
▁spoke	-11457
▁stair	-11458
▁steel	-11459
▁synth	-11460
▁tends	-11461
▁theft	-11462
▁theor	-11463
▁tooth	-11464
▁tutor	-11465
▁unity	-11466
▁unpop	-11467
▁unrel	-11468
▁upset	-11469
▁urged	-11470
▁virus	-11471
▁wards	-11472
▁worsh	-11473
chester	-11474
ehawken	-11475
iculous	-11476
ielding	-11477
ificial	-11478
incible	-11479
ishvara	-11480
mission	-11481
ometric	-11482
talions	-11483
▁Albani	-11484
▁Atomic	-11485
▁Behind	-11486
▁Bowyer	-11487
▁Bright	-11488
▁Caster	-11489
▁Cinema	-11490
▁Comics	-11491
▁Cooper	-11492
▁Denise	-11493
▁Enriqu	-11494
▁Exhale	-11495
▁Galway	-11496
▁Gálvez	-11497
▁Jesuit	-11498
▁Juárez	-11499
▁Kaiser	-11500
▁Konkan	-11501
▁Malone	-11502
▁Murphy	-11503
▁Nation	-11504
▁Others	-11505
▁Pettit	-11506
▁Powers	-11507
▁Préval	-11508
▁Quebec	-11509
▁Record	-11510
▁Report	-11511
▁Rivers	-11512
▁Rockef	-11513
▁Rovers	-11514
▁Silent	-11515
▁Soorma	-11516
▁Strait	-11517
▁Surrey	-11518
▁Suvarn	-11519
▁Syrian	-11520
▁Tarant	-11521
▁Walker	-11522
▁Yamaha	-11523
▁Zombie	-11524
▁admits	-11525
▁aeropl	-11526
▁affair	-11527
▁aggreg	-11528
▁anchor	-11529
▁autumn	-11530
▁casual	-11531
▁ceased	-11532
▁cheese	-11533
▁choose	-11534
▁colors	-11535
▁compat	-11536
▁cosmic	-11537
▁debris	-11538
▁defens	-11539
▁delays	-11540
▁desert	-11541
▁dimens	-11542
▁dubbed	-11543
▁easier	-11544
▁edited	-11545
▁enroll	-11546
▁errors	-11547
▁explan	-11548
▁extant	-11549
▁facade	-11550
▁finest	-11551
▁floods	-11552
▁forget	-11553
▁frieze	-11554
▁happen	-11555
▁hatred	-11556
▁hazard	-11557
▁hybrid	-11558
▁intact	-11559
▁lacked	-11560
▁leaked	-11561
▁limits	-11562
▁melody	-11563
▁merged	-11564
▁myself	-11565
▁myster	-11566
▁namely	-11567
▁nephew	-11568
▁notice	-11569
▁online	-11570
▁panthe	-11571
▁papers	-11572
▁parade	-11573
▁piston	-11574
▁plates	-11575
▁precip	-11576
▁pretty	-11577
▁proced	-11578
▁relied	-11579
▁replay	-11580
▁rivers	-11581
▁roster	-11582
▁runway	-11583
▁sequel	-11584
▁sortie	-11585
▁spoken	-11586
▁spouse	-11587
▁staged	-11588
▁stucco	-11589
▁suffer	-11590
▁suited	-11591
▁summar	-11592
▁tended	-11593
▁thanks	-11594
▁toured	-11595
▁venues	-11596
▁victim	-11597
▁voiced	-11598
▁volley	-11599
▁whites	-11600
acements	-11601
appropri	-11602
ontinued	-11603
opolitan	-11604
tershire	-11605
utionary	-11606
▁Achille	-11607
▁Agustín	-11608
▁Anthony	-11609
▁Atomics	-11610
▁Bennett	-11611
▁Bishops	-11612
▁Bobcats	-11613
▁Bunbury	-11614
▁Chomsky	-11615
▁Collins	-11616
▁Concept	-11617
▁Control	-11618
▁Culture	-11619
▁Denardo	-11620
▁Gregory	-11621
▁Kaifeng	-11622
▁Kennedy	-11623
▁Mallory	-11624
▁Maurice	-11625
▁Members	-11626
▁Morning	-11627
▁Newport	-11628
▁Newsted	-11629
▁Notable	-11630
▁Ornette	-11631
▁Perhaps	-11632
▁Pistons	-11633
▁Raphael	-11634
▁Regular	-11635
▁Rudolph	-11636
▁Rushden	-11637
▁Springs	-11638
▁Stevens	-11639
▁Supreme	-11640
▁Tupolev	-11641
▁acquire	-11642
▁advised	-11643
▁antagon	-11644
▁anthrop	-11645
▁anticip	-11646
▁avoided	-11647
▁balance	-11648
▁betaine	-11649
▁boilers	-11650
▁categor	-11651
▁ceiling	-11652
▁charged	-11653
▁charity	-11654
▁colours	-11655
▁comprom	-11656
▁confirm	-11657
▁cyclone	-11658
▁debated	-11659
▁desired	-11660
▁differs	-11661
▁distrib	-11662
▁donated	-11663
▁earnest	-11664
▁earthen	-11665
▁emotion	-11666
▁enforce	-11667
▁evolved	-11668
▁experts	-11669
▁extends	-11670
▁feeling	-11671
▁funeral	-11672
▁genetic	-11673
▁haircut	-11674
▁handled	-11675
▁hanging	-11676
▁honours	-11677
▁intense	-11678
▁issuing	-11679
▁knowing	-11680
▁lessons	-11681
▁literal	-11682
▁loyalty	-11683
▁masonry	-11684
▁minimum	-11685
▁mixture	-11686
▁partner	-11687
▁pillars	-11688
▁pledged	-11689
▁polythe	-11690
▁postwar	-11691
▁proceed	-11692
▁pursued	-11693
▁rebuild	-11694
▁recalls	-11695
▁recount	-11696
▁remixes	-11697
▁remuner	-11698
▁rhythms	-11699
▁salvage	-11700
▁secular	-11701
▁shelter	-11702
▁spotted	-11703
▁stained	-11704
▁staying	-11705
▁studios	-11706
▁teenage	-11707
▁telecom	-11708
▁telling	-11709
▁travels	-11710
▁veteran	-11711
▁warfare	-11712
▁weekend	-11713
istration	-11714
quartered	-11715
▁AllMusic	-11716
▁Austrian	-11717
▁Baseball	-11718
▁Beaufort	-11719
▁Berliner	-11720
▁Conflict	-11721
▁Giovanni	-11722
▁Hanneman	-11723
▁Honorary	-11724
▁Horizons	-11725
▁Jeunesse	-11726
▁McEntire	-11727
▁Michigan	-11728
▁Muddling	-11729
▁Nicholas	-11730
▁Plymouth	-11731
▁Portugal	-11732
▁Sandwich	-11733
▁Sundance	-11734
▁Tattnall	-11735
▁Together	-11736
▁Valuable	-11737
▁activist	-11738
▁adultery	-11739
▁authored	-11740
▁averages	-11741
▁barracks	-11742
▁battered	-11743
▁bleeding	-11744
▁boundary	-11745
▁branched	-11746
▁carvings	-11747
▁category	-11748
▁coaching	-11749
▁collapse	-11750
▁compiled	-11751
▁corridor	-11752
▁crescent	-11753
▁demanded	-11754
▁deserted	-11755
▁devotion	-11756
▁disagree	-11757
▁displays	-11758
▁dramatic	-11759
▁dropping	-11760
▁emperors	-11761
▁enduring	-11762
▁enormous	-11763
▁epoxides	-11764
▁exploded	-11765
▁forestry	-11766
▁frescoes	-11767
▁funerary	-11768
▁hampered	-11769
▁handling	-11770
▁ideology	-11771
▁infantry	-11772
▁instinct	-11773
▁instruct	-11774
▁interned	-11775
▁laborers	-11776
▁landmark	-11777
▁licensed	-11778
▁likewise	-11779
▁messages	-11780
▁modified	-11781
▁occupies	-11782
▁overcome	-11783
▁partners	-11784
▁patterns	-11785
▁potatoes	-11786
▁pressing	-11787
▁procured	-11788
▁prolific	-11789
▁quarters	-11790
▁refusing	-11791
▁relating	-11792
▁relevant	-11793
▁retiring	-11794
▁sculpted	-11795
▁sections	-11796
▁shootout	-11797
▁sporadic	-11798
▁sporting	-11799
▁strained	-11800
▁subordin	-11801
▁symbolic	-11802
▁terminus	-11803
▁theropod	-11804
▁turbines	-11805
▁unlikely	-11806
▁unpreced	-11807
▁variable	-11808
▁weakened	-11809
▁Architect	-11810
▁Augustine	-11811
▁Bernstein	-11812
▁Biography	-11813
▁Casterman	-11814
▁Companion	-11815
▁Dahlonega	-11816
▁Defensive	-11817
▁Francesco	-11818
▁Guangdong	-11819
▁Mandatory	-11820
▁Melbourne	-11821
▁Moncrieff	-11822
▁Normandie	-11823
▁Pakistani	-11824
▁Political	-11825
▁Represent	-11826
▁Sometimes	-11827
▁Sovereign	-11828
▁Telegraph	-11829
▁Ukrainian	-11830
▁Universal	-11831
▁Weehawken	-11832
▁accounted	-11833
▁advocated	-11834
▁alternate	-11835
▁attacking	-11836
▁boyfriend	-11837
▁capturing	-11838
▁chemistry	-11839
▁committed	-11840
▁compelled	-11841
▁complaint	-11842
▁courtyard	-11843
▁desperate	-11844
▁detectors	-11845
▁disadvant	-11846
▁dismasted	-11847
▁dispersed	-11848
▁electoral	-11849
▁encompass	-11850
▁examining	-11851
▁exhibited	-11852
▁extending	-11853
▁improving	-11854
▁incidents	-11855
▁inclusion	-11856
▁increases	-11857
▁limestone	-11858
▁megaliths	-11859
▁microscop	-11860
▁mutations	-11861
▁necessity	-11862
▁northward	-11863
▁partition	-11864
▁passenger	-11865
▁precisely	-11866
▁programme	-11867
▁recovered	-11868
▁reduction	-11869
▁regiments	-11870
▁satellite	-11871
▁scientist	-11872
▁shipments	-11873
▁struggled	-11874
▁substance	-11875
▁sulfonium	-11876
▁traveling	-11877
▁travelled	-11878
▁withdrawn	-11879
eorological	-11880
stitutional	-11881
▁Associated	-11882
▁Casualties	-11883
▁Cheltenham	-11884
▁DreamWorks	-11885
▁Enriquillo	-11886
▁Management	-11887
▁Mesolithic	-11888
▁Publishing	-11889
▁Scientific	-11890
▁Tournament	-11891
▁adventures	-11892
▁approaches	-11893
▁assignment	-11894
▁atmosphere	-11895
▁auditioned	-11896
▁authorized	-11897
▁battalions	-11898
▁biographer	-11899
▁ceremonies	-11900
▁challenges	-11901
▁circulated	-11902
▁commanders	-11903
▁completing	-11904
▁confidence	-11905
▁continuing	-11906
▁critically	-11907
▁deployment	-11908
▁electronic	-11909
▁emphasized	-11910
▁exceptions	-11911
▁explaining	-11912
▁functional	-11913
▁helicopter	-11914
▁highlights	-11915
▁indicating	-11916
▁legitimate	-11917
▁millimeter	-11918
▁occasional	-11919
▁overlooked	-11920
▁personally	-11921
▁principles	-11922
▁protecting	-11923
▁regulatory	-11924
▁relegation	-11925
▁republican	-11926
▁sacrifices	-11927
▁successive	-11928
▁travelling	-11929
▁upperparts	-11930
▁vaudeville	-11931
▁violations	-11932
▁Bellerophon	-11933
▁Furthermore	-11934
▁Rockefeller	-11935
▁accordingly	-11936
▁approaching	-11937
▁celebrities	-11938
▁cooperation	-11939
▁culmination	-11940
▁deprecating	-11941
▁distinguish	-11942
▁dreadnought	-11943
▁electricity	-11944
▁exclusively	-11945
▁grandfather	-11946
▁hygroscopic	-11947
▁manufacture	-11948
▁microlights	-11949
▁neighboring	-11950
▁politicians	-11951
▁prohibition	-11952
▁prominently	-11953
▁reminiscent	-11954
▁volunteered	-11955
▁Consequently	-11956
▁Independence	-11957
▁Subsequently	-11958
▁Suvarnabhumi	-11959
▁applications	-11960
▁considerably	-11961
▁conspirators	-11962
▁constitution	-11963
▁discontinued	-11964
▁intermediate	-11965
▁investigated	-11966
▁manufacturer	-11967
▁searchlights	-11968
▁similarities	-11969
▁Championships	-11970
▁accommodation	-11971
▁advertisement	-11972
▁championships	-11973
▁commissioning	-11974
▁denominations	-11975
▁participation	-11976
▁reversibility	-11977
▁unprecedented	-11978
▁administrative	-11979
▁characteristic	-11980
▁fortifications	-11981
▁professionally	-11982
▁internationally	-11983
60	-11984
92	-11985
BL	-11986
Bg	-11987
Cl	-11988
IM	-11989
LC	-11990
NW	-11991
PM	-11992
SF	-11993
TB	-11994
TX	-11995
ci	-11996
gs	-11997
kl	-11998
pg	-11999
ta	-12000
uz	-12001
va	-12002
ym	-12003
ée	-12004
▁*	-12005
▁^	-12006
TRA	-12007
aan	-12008
acc	-12009
asm	-12010
ava	-12011
die	-12012
ean	-12013
ece	-12014
eli	-12015
emm	-12016
enz	-12017
gau	-12018
gud	-12019
iah	-12020
idt	-12021
igs	-12022
inh	-12023
mel	-12024
oln	-12025
omp	-12026
pse	-12027
qué	-12028
sev	-12029
sol	-12030
uka	-12031
uki	-12032
uns	-12033
usi	-12034
vor	-12035
▁08	-12036
▁3.	-12037
▁Bb	-12038
▁Hi	-12039
▁Ki	-12040
▁Ku	-12041
▁OR	-12042
▁Ob	-12043
▁Ot	-12044
▁Pt	-12045
▁Qi	-12046
▁RN	-12047
▁VI	-12048
▁Xu	-12049
▁af	-12050
▁hi	-12051
▁ju	-12052
▁kW	-12053
NWBL	-12054
Walk	-12055
abur	-12056
ache	-12057
ails	-12058
alog	-12059
anca	-12060
aned	-12061
anga	-12062
anim	-12063
anne	-12064
anxi	-12065
aple	-12066
appa	-12067
atra	-12068
aver	-12069
azed	-12070
añol	-12071
bbel	-12072
beit	-12073
brae	-12074
cled	-12075
cope	-12076
cott	-12077
cret	-12078
dale	-12079
elin	-12080
erva	-12081
fold	-12082
game	-12083
garh	-12084
ghan	-12085
iens	-12086
igel	-12087
igua	-12088
inas	-12089
inda	-12090
isch	-12091
iscl	-12092
iusz	-12093
izer	-12094
keep	-12095
kill	-12096
kind	-12097
leys	-12098
midt	-12099
mith	-12100
nery	-12101
nite	-12102
oney	-12103
onia	-12104
orch	-12105
osph	-12106
oved	-12107
oven	-12108
phae	-12109
pled	-12110
pool	-12111
ptic	-12112
quay	-12113
rist	-12114
rite	-12115
rons	-12116
rosp	-12117
rott	-12118
seni	-12119
tany	-12120
text	-12121
town	-12122
umin	-12123
umph	-12124
warf	-12125
zing	-12126
çois	-12127
ński	-12128
▁107	-12129
▁115	-12130
▁157	-12131
▁215	-12132
▁402	-12133
▁403	-12134
▁440	-12135
▁450	-12136
▁550	-12137
▁ABC	-12138
▁APL	-12139
▁Aff	-12140
▁Coy	-12141
▁Cun	-12142
▁Der	-12143
▁Dow	-12144
▁Dub	-12145
▁Dur	-12146
▁Eff	-12147
▁Esp	-12148
▁Ess	-12149
▁Fru	-12150
▁GTX	-12151
▁Goe	-12152
▁Gri	-12153
▁Hao	-12154
▁Hod	-12155
▁INS	-12156
▁IRA	-12157
▁Jut	-12158
▁Kas	-12159
▁Kat	-12160
▁Ket	-12161
▁Leo	-12162
▁Log	-12163
▁MLB	-12164
▁MTB	-12165
▁Mih	-12166
▁Nav	-12167
▁Nik	-12168
▁Nix	-12169
▁Nub	-12170
▁Num	-12171
▁Pap	-12172
▁Rol	-12173
▁Saf	-12174
▁Seg	-12175
▁Sep	-12176
▁Sol	-12177
▁Tak	-12178
▁Tao	-12179
▁Tem	-12180
▁UCI	-12181
▁USD	-12182
▁Vis	-12183
▁Vit	-12184
▁Was	-12185
▁Yog	-12186
▁Yug	-12187
▁ade	-12188
▁agr	-12189
▁alk	-12190
▁apg	-12191
▁bra	-12192
▁cun	-12193
▁dil	-12194
▁etc	-12195
▁fet	-12196
▁guy	-12197
▁kit	-12198
▁omn	-12199
▁ost	-12200
▁pav	-12201
▁pir	-12202
▁rpg	-12203
▁rus	-12204
▁sax	-12205
▁sew	-12206
▁tal	-12207
▁tet	-12208
▁toy	-12209
▁upd	-12210
abase	-12211
abric	-12212
aders	-12213
aidan	-12214
alymp	-12215
andro	-12216
annes	-12217
annon	-12218
apuri	-12219
arthy	-12220
asker	-12221
asons	-12222
atisf	-12223
auled	-12224
berry	-12225
endar	-12226
ennon	-12227
entin	-12228
entle	-12229
esign	-12230
esque	-12231
ested	-12232
haven	-12233
icism	-12234
iffer	-12235
illas	-12236
immad	-12237
inded	-12238
iners	-12239
inger	-12240
inois	-12241
intro	-12242
istan	-12243
keley	-12244
lings	-12245
ocial	-12246
olloy	-12247
omach	-12248
omech	-12249
ophil	-12250
opsis	-12251
orado	-12252
orned	-12253
osaic	-12254
osene	-12255
oster	-12256
otten	-12257
ource	-12258
owned	-12259
parov	-12260
raged	-12261
ricts	-12262
rised	-12263
rosso	-12264
solue	-12265
stick	-12266
watch	-12267
yeloc	-12268
▁1743	-12269
▁1753	-12270
▁1756	-12271
▁1806	-12272
▁1808	-12273
▁1836	-12274
▁1858	-12275
▁1867	-12276
▁1873	-12277
▁1883	-12278
▁1884	-12279
▁1885	-12280
▁1887	-12281
▁1896	-12282
▁1897	-12283
▁1898	-12284
▁1903	-12285
▁Atum	-12286
▁Bech	-12287
▁Cald	-12288
▁Chul	-12289
▁Coff	-12290
▁Crow	-12291
▁Deep	-12292
▁Digg	-12293
▁Duat	-12294
▁Duke	-12295
▁Exam	-12296
▁Face	-12297
▁Folk	-12298
▁Garn	-12299
▁Gene	-12300
▁Ghar	-12301
▁Giel	-12302
▁Gift	-12303
▁Heat	-12304
▁Hood	-12305
▁Hope	-12306
▁José	-12307
▁Kook	-12308
▁Liao	-12309
▁Linc	-12310
▁Luke	-12311
▁Mays	-12312
▁Moon	-12313
▁Neut	-12314
▁Next	-12315
▁Nice	-12316
▁Orth	-12317
▁Pict	-12318
▁Qian	-12319
▁Quin	-12320
▁Room	-12321
▁Save	-12322
▁Seaw	-12323
▁Shen	-12324
▁Sher	-12325
▁Sony	-12326
▁Spir	-12327
▁Stop	-12328
▁Suff	-12329
▁Tank	-12330
▁Tirp	-12331
▁Trey	-12332
▁Trou	-12333
▁Vinc	-12334
▁Wadd	-12335
▁Wave	-12336
▁Wilm	-12337
▁alco	-12338
▁apse	-12339
▁aren	-12340
▁carn	-12341
▁cash	-12342
▁chip	-12343
▁cock	-12344
▁crab	-12345
▁cuis	-12346
▁dean	-12347
▁disg	-12348
▁dorm	-12349
▁duel	-12350
▁ease	-12351
▁echo	-12352
▁empl	-12353
▁euro	-12354
▁feas	-12355
▁fier	-12356
▁fish	-12357
▁flew	-12358
▁fond	-12359
▁font	-12360
▁fram	-12361
▁gard	-12362
▁gran	-12363
▁kerb	-12364
▁kick	-12365
▁lung	-12366
▁marg	-12367
▁mate	-12368
▁milk	-12369
▁mini	-12370
▁mock	-12371
▁mood	-12372
▁moon	-12373
▁mumm	-12374
▁olds	-12375
▁ores	-12376
▁outf	-12377
▁oval	-12378
▁peas	-12379
▁phyl	-12380
▁pink	-12381
▁plut	-12382
▁puts	-12383
▁quot	-12384
▁rede	-12385
▁rein	-12386
▁rent	-12387
▁sang	-12388
▁scen	-12389
▁seap	-12390
▁seaw	-12391
▁sple	-12392
▁sund	-12393
▁tart	-12394
▁thro	-12395
▁trig	-12396
▁unst	-12397
aaknal	-12398
abling	-12399
aburra	-12400
achute	-12401
ailles	-12402
antour	-12403
aptist	-12404
arting	-12405
asures	-12406
athing	-12407
atters	-12408
chelor	-12409
elines	-12410
ellent	-12411
ennium	-12412
enters	-12413
erable	-12414
erving	-12415
estyle	-12416
iators	-12417
ickens	-12418
idable	-12419
idency	-12420
igaret	-12421
imming	-12422
inians	-12423
iously	-12424
irteen	-12425
itects	-12426
kinson	-12427
minent	-12428
mphony	-12429
ocracy	-12430
ogenic	-12431
ologic	-12432
ondaga	-12433
ophone	-12434
oughts	-12435
ptical	-12436
uished	-12437
vanced	-12438
▁Above	-12439
▁Acute	-12440
▁Admin	-12441
▁Aless	-12442
▁Baham	-12443
▁Banks	-12444
▁Based	-12445
▁Basil	-12446
▁Billy	-12447
▁Bloom	-12448
▁Camer	-12449
▁Categ	-12450
▁Cecil	-12451
▁Chang	-12452
▁Coach	-12453
▁Eddie	-12454
▁Exper	-12455
▁Fairy	-12456
▁Fires	-12457
▁Franz	-12458
▁Fried	-12459
▁Glenn	-12460
▁Igual	-12461
▁Jenna	-12462
▁Kurds	-12463
▁Langu	-12464
▁Leone	-12465
▁Lodge	-12466
▁Metro	-12467
▁Month	-12468
▁Moroc	-12469
▁Myres	-12470
▁Nelly	-12471
▁Nigel	-12472
▁Osaka	-12473
▁Patri	-12474
▁Pomer	-12475
▁Ptole	-12476
▁Punch	-12477
▁RIDOT	-12478
▁Radha	-12479
▁Sabre	-12480
▁Scots	-12481
▁Sealy	-12482
▁Shoop	-12483
▁Sites	-12484
▁Trail	-12485
▁Vegas	-12486
▁WNWBL	-12487
▁Wayne	-12488
▁Wheel	-12489
▁Zhang	-12490
▁accum	-12491
▁advis	-12492
▁advoc	-12493
▁airst	-12494
▁align	-12495
▁alive	-12496
▁allot	-12497
▁arist	-12498
▁basal	-12499
▁bells	-12500
▁blues	-12501
▁bonus	-12502
▁chain	-12503
▁chant	-12504
▁chase	-12505
▁choir	-12506
▁covet	-12507
▁cruel	-12508
▁cults	-12509
▁deriv	-12510
▁digit	-12511
▁dozen	-12512
▁drink	-12513
▁dwarf	-12514
▁ecosy	-12515
▁edges	-12516
▁fires	-12517
▁fungi	-12518
▁genes	-12519
▁hills	-12520
▁infer	-12521
▁inhab	-12522
▁jokes	-12523
▁knock	-12524
▁liver	-12525
▁marry	-12526
▁meals	-12527
▁micro	-12528
▁midst	-12529
▁mycel	-12530
▁opens	-12531
▁pione	-12532
▁posed	-12533
▁postc	-12534
▁pyram	-12535
▁quiet	-12536
▁radar	-12537
▁reass	-12538
▁rebel	-12539
▁remod	-12540
▁ridge	-12541
▁riots	-12542
▁saint	-12543
▁schem	-12544
▁scrut	-12545
▁shirt	-12546
▁solar	-12547
▁spots	-12548
▁tanks	-12549
▁taste	-12550
▁tiger	-12551
▁trail	-12552
▁truly	-12553
▁tumor	-12554
▁tying	-12555
▁unoff	-12556
▁vague	-12557
▁wages	-12558
▁wound	-12559
▁yards	-12560
▁zones	-12561
ablanca	-12562
astrous	-12563
atitude	-12564
ceeding	-12565
entials	-12566
iaticus	-12567
icating	-12568
inental	-12569
instein	-12570
istence	-12571
itating	-12572
itional	-12573
manship	-12574
olodics	-12575
ospaced	-12576
tically	-12577
umbered	-12578
western	-12579
writers	-12580
▁Action	-12581
▁Almina	-12582
▁Altern	-12583
▁Andrea	-12584
▁Angela	-12585
▁Astron	-12586
▁Bhopal	-12587
▁Boxing	-12588
▁Busqué	-12589
▁Chapel	-12590
▁Chopra	-12591
▁Cornic	-12592
▁Crisis	-12593
▁Damage	-12594
▁Dratch	-12595
▁Forbes	-12596
▁Foster	-12597
▁Friend	-12598
▁Gordon	-12599
▁Greece	-12600
▁Harris	-12601
▁Hawkes	-12602
▁Hitler	-12603
▁Indeed	-12604
▁Indust	-12605
▁Joshua	-12606
▁Keeper	-12607
▁Knight	-12608
▁Lasker	-12609
▁Legacy	-12610
▁Legend	-12611
▁Leices	-12612
▁Maidan	-12613
▁Marian	-12614
▁Mennon	-12615
▁Molloy	-12616
▁Monten	-12617
▁Mother	-12618
▁Mwanga	-12619
▁Norway	-12620
▁Palmer	-12621
▁Please	-12622
▁Rector	-12623
▁Region	-12624
▁Reuter	-12625
▁Romano	-12626
▁Ronald	-12627
▁Sabres	-12628
▁Safety	-12629
▁Samuel	-12630
▁Stalin	-12631
▁Symons	-12632
▁Twenty	-12633
▁Vienna	-12634
▁Walter	-12635
▁Weston	-12636
▁Xinhua	-12637
▁Yugosl	-12638
▁affect	-12639
▁albeit	-12640
▁allies	-12641
▁arrows	-12642
▁assert	-12643
▁barely	-12644
▁beauty	-12645
▁boring	-12646
▁breast	-12647
▁brutal	-12648
▁bypass	-12649
▁census	-12650
▁centim	-12651
▁cereal	-12652
▁corpor	-12653
▁cosmet	-12654
▁cosmos	-12655
▁cotton	-12656
▁crimes	-12657
▁crosso	-12658
▁darker	-12659
▁decree	-12660
▁devout	-12661
▁downed	-12662
▁emerge	-12663
▁eroded	-12664
▁estate	-12665
▁execut	-12666
▁fewest	-12667
▁finale	-12668
▁floors	-12669
▁freely	-12670
▁genera	-12671
▁golden	-12672
▁grades	-12673
▁graves	-12674
▁halted	-12675
▁harass	-12676
▁hidden	-12677
▁honors	-12678
▁humour	-12679
▁hyphae	-12680
▁incons	-12681
▁invent	-12682
▁jimmad	-12683
▁killer	-12684
▁knight	-12685
▁lawyer	-12686
▁lights	-12687
▁lineup	-12688
▁locked	-12689
▁marble	-12690
▁mature	-12691
▁metals	-12692
▁metric	-12693
▁mortar	-12694
▁motifs	-12695
▁mowing	-12696
▁navies	-12697
▁numism	-12698
▁orange	-12699
▁panels	-12700
▁pastor	-12701
▁pedest	-12702
▁perman	-12703
▁perpet	-12704
▁phosph	-12705
▁proven	-12706
▁purely	-12707
▁rarity	-12708
▁recapt	-12709
▁reduce	-12710
▁refere	-12711
▁retail	-12712
▁retain	-12713
▁retard	-12714
▁rookie	-12715
▁rubber	-12716
▁sinful	-12717
▁slower	-12718
▁strain	-12719
▁stream	-12720
▁unhapp	-12721
▁unpaid	-12722
▁varies	-12723
▁walled	-12724
▁washed	-12725
▁welter	-12726
atisfied	-12727
etheless	-12728
itioners	-12729
ordinary	-12730
ublicain	-12731
▁Alexand	-12732
▁Andrews	-12733
▁Antigua	-12734
▁ArtWalk	-12735
▁Augusta	-12736
▁Biomech	-12737
▁Bolivar	-12738
▁Brobbel	-12739
▁Charlie	-12740
▁Chester	-12741
▁Climate	-12742
▁Coastal	-12743
▁Crusade	-12744
▁Deities	-12745
▁Donegal	-12746
▁Edition	-12747
▁Foreign	-12748
▁Gielgud	-12749
▁Grammar	-12750
▁Greater	-12751
▁Halfway	-12752
▁Harvard	-12753
▁Hunwick	-12754
▁Jutland	-12755
▁Leading	-12756
▁Lincoln	-12757
▁Located	-12758
▁Mauryas	-12759
▁Minerva	-12760
▁Morelos	-12761
▁Network	-12762
▁Players	-12763
▁Premier	-12764
▁Ramgarh	-12765
▁Reality	-12766
▁Reports	-12767
▁Respect	-12768
▁Résolue	-12769
▁Schmidt	-12770
▁Simpson	-12771
▁Strange	-12772
▁Tirpitz	-12773
▁Torquay	-12774
▁Whitney	-12775
▁Windsor	-12776
▁Zionism	-12777
▁accepts	-12778
▁airline	-12779
▁ambient	-12780
▁antimon	-12781
▁arguing	-12782
▁barrels	-12783
▁beloved	-12784
▁bombing	-12785
▁branded	-12786
▁brigade	-12787
▁broader	-12788
▁checked	-12789
▁chooses	-12790
▁cleared	-12791
▁convert	-12792
▁convoys	-12793
▁couples	-12794
▁cuisine	-12795
▁dangers	-12796
▁defeats	-12797
▁density	-12798
▁descent	-12799
▁dispute	-12800
▁drafted	-12801
▁drivers	-12802
▁editing	-12803
▁emitted	-12804
▁engined	-12805
▁equally	-12806
▁equated	-12807
▁extingu	-12808
▁extract	-12809
▁faction	-12810
▁fantasy	-12811
▁ghettos	-12812
▁glasses	-12813
▁guarant	-12814
▁hearing	-12815
▁imposed	-12816
▁interch	-12817
▁intimid	-12818
▁jewelry	-12819
▁justify	-12820
▁landown	-12821
▁lineage	-12822
▁looting	-12823
▁magical	-12824
▁mastery	-12825
▁monitor	-12826
▁monothe	-12827
▁offense	-12828
▁onwards	-12829
▁patient	-12830
▁patrols	-12831
▁peoples	-12832
▁plaster	-12833
▁pleased	-12834
▁posters	-12835
▁pressed	-12836
▁promulg	-12837
▁prosper	-12838
▁raiding	-12839
▁realise	-12840
▁rebuilt	-12841
▁refusal	-12842
▁retains	-12843
▁revived	-12844
▁rumours	-12845
▁sarsens	-12846
▁satisfy	-12847
▁scandal	-12848
▁sharing	-12849
▁shutout	-12850
▁spawned	-12851
▁spirits	-12852
▁spouses	-12853
▁stalled	-12854
▁stepped	-12855
▁stomach	-12856
▁strange	-12857
▁suicide	-12858
▁surreal	-12859
▁syncret	-12860
▁tapered	-12861
▁terrace	-12862
▁threats	-12863
▁villain	-12864
▁volumes	-12865
▁warning	-12866
▁warrant	-12867
▁weighed	-12868
▁whitish	-12869
esignated	-12870
ographics	-12871
stitution	-12872
yelocytic	-12873
▁Advanced	-12874
▁Aerodrom	-12875
▁Agricult	-12876
▁Babyface	-12877
▁Berkeley	-12878
▁Bradford	-12879
▁Brittany	-12880
▁Carnival	-12881
▁Castanea	-12882
▁Category	-12883
▁Champion	-12884
▁Changing	-12885
▁Cockburn	-12886
▁Colorado	-12887
▁Cultural	-12888
▁Defender	-12889
▁Diamonds	-12890
▁Fernando	-12891
▁Filmfare	-12892
▁Fitwatch	-12893
▁François	-12894
▁Hispanic	-12895
▁Illinois	-12896
▁Infinity	-12897
▁Kasparov	-12898
▁Lombardo	-12899
▁Mackinac	-12900
▁Maryland	-12901
▁Olympics	-12902
▁Onondaga	-12903
▁Ordnance	-12904
▁Paralymp	-12905
▁Plantain	-12906
▁Portland	-12907
▁Promoted	-12908
▁Question	-12909
▁Regional	-12910
▁Scouting	-12911
▁Services	-12912
▁Starting	-12913
▁Survival	-12914
▁Symphony	-12915
▁Taxonomy	-12916
▁Wickford	-12917
▁abortion	-12918
▁accident	-12919
▁adjusted	-12920
▁agrarian	-12921
▁allosaur	-12922
▁altitude	-12923
▁argument	-12924
▁assisted	-12925
▁athletes	-12926
▁attorney	-12927
▁avoiding	-12928
▁brigades	-12929
▁canceled	-12930
▁capitals	-12931
▁casemate	-12932
▁cemetery	-12933
▁coloured	-12934
▁commerce	-12935
▁consumed	-12936
▁conveyed	-12937
▁critique	-12938
▁decrease	-12939
▁defenses	-12940
▁defining	-12941
▁duration	-12942
▁dynamics	-12943
▁editions	-12944
▁educated	-12945
▁enlarged	-12946
▁envision	-12947
▁equality	-12948
▁eventual	-12949
▁excavate	-12950
▁expelled	-12951
▁exterior	-12952
▁extremes	-12953
▁faithful	-12954
▁findings	-12955
▁focusing	-12956
▁folktale	-12957
▁forested	-12958
▁imminent	-12959
▁imported	-12960
▁indirect	-12961
▁infected	-12962
▁intellig	-12963
▁internet	-12964
▁invented	-12965
▁kerosene	-12966
▁labelled	-12967
▁landfall	-12968
▁limiting	-12969
▁machines	-12970
▁maneuver	-12971
▁manpower	-12972
▁marketed	-12973
▁massacre	-12974
▁melodram	-12975
▁millions	-12976
▁mistaken	-12977
▁narrower	-12978
▁nineteen	-12979
▁nonsense	-12980
▁observes	-12981
▁odoratus	-12982
▁overseas	-12983
▁painting	-12984
▁phylogen	-12985
▁populace	-12986
▁portrays	-12987
▁praising	-12988
▁premises	-12989
▁profound	-12990
▁properly	-12991
▁renowned	-12992
▁reporter	-12993
▁requests	-12994
▁schedule	-12995
▁screened	-12996
▁seasonal	-12997
▁shelters	-12998
▁software	-12999
▁solution	-13000
▁stranger	-13001
▁supplied	-13002
▁surprise	-13003
▁survives	-13004
▁syndrome	-13005
▁touching	-13006
▁tutelage	-13007
▁vanished	-13008
▁visiting	-13009
▁weakness	-13010
▁Addington	-13011
▁Apostolic	-13012
▁Batchelor	-13013
▁Canadians	-13014
▁Carpenter	-13015
▁Cathedral	-13016
▁Chestnuts	-13017
▁Chronicle	-13018
▁Divisions	-13019
▁Elizabeth	-13020
▁Geography	-13021
▁Gharapuri	-13022
▁Insurance	-13023
▁Katherine	-13024
▁Kazimierz	-13025
▁Leviathan	-13026
▁Limantour	-13027
▁Mangalore	-13028
▁Personnel	-13029
▁Relations	-13030
▁Tarantino	-13031
▁Therefore	-13032
▁Zanzibari	-13033
▁abolished	-13034
▁abolition	-13035
▁addresses	-13036
▁adventure	-13037
▁aggregate	-13038
▁asiaticus	-13039
▁associate	-13040
▁attending	-13041
▁awareness	-13042
▁ballistic	-13043
▁breakfast	-13044
▁celebrate	-13045
▁chambered	-13046
▁circulate	-13047
▁commenced	-13048
▁comprises	-13049
▁confident	-13050
▁consensus	-13051
▁contracts	-13052
▁customers	-13053
▁defeating	-13054
▁depiction	-13055
▁descended	-13056
▁dismember	-13057
▁districts	-13058
▁ecosystem	-13059
▁encounter	-13060
▁evacuated	-13061
▁everybody	-13062
▁exercised	-13063
▁exhausted	-13064
▁expecting	-13065
▁filmmaker	-13066
▁firepower	-13067
▁flotillas	-13068
▁frequency	-13069
▁governing	-13070
▁happening	-13071
▁incidence	-13072
▁inflicted	-13073
▁intensify	-13074
▁intensive	-13075
▁intercept	-13076
▁keyboards	-13077
▁legendary	-13078
▁licensing	-13079
▁magazines	-13080
▁manoeuvre	-13081
▁meanwhile	-13082
▁mobilised	-13083
▁molecular	-13084
▁octagonal	-13085
▁persuaded	-13086
▁phenomena	-13087
▁physicist	-13088
▁portrayal	-13089
▁practical	-13090
▁prevalent	-13091
▁promoting	-13092
▁propeller	-13093
▁prospects	-13094
▁publicity	-13095
▁realistic	-13096
▁regulated	-13097
▁renovated	-13098
▁retreated	-13099
▁satirical	-13100
▁signature	-13101
▁societies	-13102
▁specified	-13103
▁stability	-13104
▁starboard	-13105
▁suspected	-13106
▁targeting	-13107
▁transcend	-13108
▁undertake	-13109
▁unpopular	-13110
▁vertebrae	-13111
appropriate	-13112
▁Additional	-13113
▁Bridgeport	-13114
▁Capablanca	-13115
▁Cautionary	-13116
▁Convention	-13117
▁Conversely	-13118
▁Federation	-13119
▁Fourteenth	-13120
▁Invincible	-13121
▁Kookaburra	-13122
▁Versailles	-13123
▁Volunteers	-13124
▁absolutely	-13125
▁accessible	-13126
▁altogether	-13127
▁artificial	-13128
▁commanding	-13129
▁commentary	-13130
▁commitment	-13131
▁comparison	-13132
▁complaints	-13133
▁concluding	-13134
▁convenient	-13135
▁converting	-13136
▁dealership	-13137
▁decoration	-13138
▁dedication	-13139
▁destroying	-13140
▁devastated	-13141
▁diagnostic	-13142
▁disastrous	-13143
▁emphasised	-13144
▁expressing	-13145
▁formidable	-13146
▁girlfriend	-13147
▁graduating	-13148
▁guidelines	-13149
▁households	-13150
▁impressive	-13151
▁incomplete	-13152
▁introduces	-13153
▁investment	-13154
▁jimmadseni	-13155
▁monospaced	-13156
▁mysterious	-13157
▁phosphorus	-13158
▁positioned	-13159
▁preferring	-13160
▁proclaimed	-13161
▁professors	-13162
▁progressed	-13163
▁proportion	-13164
▁protesters	-13165
▁referenced	-13166
▁repetitive	-13167
▁separately	-13168
▁structural	-13169
▁supposedly	-13170
▁surprising	-13171
▁underlying	-13172
▁veneration	-13173
▁worshipped	-13174
istinguished	-13175
▁Accordingly	-13176
▁Environment	-13177
▁Information	-13178
▁Marlborough	-13179
▁Observatory	-13180
▁Républicain	-13181
▁Westminster	-13182
▁accusations	-13183
▁achievement	-13184
▁adaptations	-13185
▁appreciated	-13186
▁arrangement	-13187
▁battlefield	-13188
▁bestselling	-13189
▁controlling	-13190
▁conventions	-13191
▁culminating	-13192
▁determining	-13193
▁discouraged	-13194
▁discussions	-13195
▁distinction	-13196
▁encouraging	-13197
▁explanation	-13198
▁frustration	-13199
▁harmolodics	-13200
▁hostilities	-13201
▁inhabitants	-13202
▁inscription	-13203
▁interesting	-13204
▁permanently	-13205
▁personified	-13206
▁productions	-13207
▁progressive	-13208
▁protagonist	-13209
▁readability	-13210
▁substituted	-13211
▁supervision	-13212
▁suppression	-13213
▁sympathetic	-13214
▁territorial	-13215
▁transformed	-13216
▁transported	-13217
▁Commissioner	-13218
▁Metropolitan	-13219
▁Palestinians	-13220
▁Transylvania	-13221
▁Williamsport	-13222
▁administered	-13223
▁cancellation	-13224
▁commandments	-13225
▁commercially	-13226
▁compensation	-13227
▁complimented	-13228
▁consequences	-13229
▁continuously	-13230
▁counterparts	-13231
▁deliberately	-13232
▁descriptions	-13233
▁dreadnoughts	-13234
▁emplacements	-13235
▁illustration	-13236
▁individually	-13237
▁interactions	-13238
▁jurisdiction	-13239
▁negotiations	-13240
▁neighbouring	-13241
▁posthumously	-13242
▁predecessors	-13243
▁proportional	-13244
▁redesignated	-13245
▁storytelling	-13246
▁transporting	-13247
▁welterweight	-13248
▁consciousness	-13249
▁extraordinary	-13250
▁inappropriate	-13251
▁independently	-13252
▁intersections	-13253
▁manufacturing	-13254
▁methodologies	-13255
▁precipitation	-13256
▁predominantly	-13257
▁promyelocytic	-13258
▁traditionally	-13259
▁correspondence	-13260
▁manifestations	-13261
▁reorganisation	-13262
▁accomplishments	-13263
▁instrumentation	-13264
DP	-13265
FC	-13266
GA	-13267
IN	-13268
MI	-13269
ON	-13270
UC	-13271
US	-13272
cr	-13273
cé	-13274
ea	-13275
eo	-13276
hl	-13277
hr	-13278
jō	-13279
py	-13280
vo	-13281
zb	-13282
ăr	-13283
▁‘	-13284
▁⁄	-13285
▁€	-13286
ATO	-13287
CAO	-13288
IOS	-13289
RIA	-13290
SAR	-13291
TAH	-13292
aac	-13293
adw	-13294
afs	-13295
alf	-13296
ato	-13297
auc	-13298
aun	-13299
bel	-13300
cht	-13301
dan	-13302
egr	-13303
erb	-13304
ete	-13305
exp	-13306
gom	-13307
haw	-13308
hma	-13309
hot	-13310
hyl	-13311
ibe	-13312
idg	-13313
idi	-13314
igi	-13315
ihu	-13316
iry	-13317
itr	-13318
maa	-13319
nam	-13320
obi	-13321
ocl	-13322
oep	-13323
oke	-13324
org	-13325
raq	-13326
spe	-13327
sun	-13328
tim	-13329
uct	-13330
uky	-13331
upt	-13332
ura	-13333
urk	-13334
uts	-13335
wim	-13336
xim	-13337
zan	-13338
zej	-13339
zer	-13340
zir	-13341
âve	-13342
▁4.	-13343
▁6.	-13344
▁AM	-13345
▁BM	-13346
▁DH	-13347
▁ES	-13348
▁FL	-13349
▁IM	-13350
▁IR	-13351
▁MC	-13352
▁MP	-13353
▁ND	-13354
▁Na	-13355
▁Nd	-13356
▁PE	-13357
▁Qd	-13358
▁Rd	-13359
▁Sz	-13360
▁na	-13361
▁ow	-13362
▁sa	-13363
▁vi	-13364
INUS	-13365
Tube	-13366
adet	-13367
ahan	-13368
akin	-13369
alid	-13370
alli	-13371
amis	-13372
amma	-13373
aney	-13374
ania	-13375
anth	-13376
apol	-13377
ares	-13378
aris	-13379
atis	-13380
avor	-13381
awit	-13382
ayan	-13383
azon	-13384
bied	-13385
boro	-13386
bted	-13387
care	-13388
chen	-13389
cill	-13390
comp	-13391
ctic	-13392
deal	-13393
dehy	-13394
duct	-13395
eded	-13396
emba	-13397
emia	-13398
eric	-13399
eses	-13400
esop	-13401
etta	-13402
fest	-13403
ffee	-13404
folk	-13405
full	-13406
geon	-13407
gone	-13408
hatt	-13409
heng	-13410
ichi	-13411
ieux	-13412
inta	-13413
ippi	-13414
jeev	-13415
jowa	-13416
kees	-13417
leaf	-13418
leum	-13419
niew	-13420
obre	-13421
oirs	-13422
omed	-13423
omyc	-13424
oped	-13425
orea	-13426
orge	-13427
oria	-13428
oult	-13429
phis	-13430
pose	-13431
ppen	-13432
rawl	-13433
rice	-13434
rift	-13435
rope	-13436
rust	-13437
sons	-13438
ubic	-13439
uded	-13440
ulam	-13441
umac	-13442
uple	-13443
wess	-13444
yers	-13445
ygen	-13446
▁.69	-13447
▁101	-13448
▁103	-13449
▁104	-13450
▁109	-13451
▁125	-13452
▁129	-13453
▁138	-13454
▁149	-13455
▁151	-13456
▁154	-13457
▁165	-13458
▁280	-13459
▁290	-13460
▁314	-13461
▁650	-13462
▁909	-13463
▁978	-13464
▁Ald	-13465
▁Arg	-13466
▁Blu	-13467
▁Bry	-13468
▁Chu	-13469
▁Cod	-13470
▁Cos	-13471
▁Deb	-13472
▁Die	-13473
▁EMI	-13474
▁Eug	-13475
▁GAA	-13476
▁GDP	-13477
▁Gam	-13478
▁Giz	-13479
▁Gun	-13480
▁Hil	-13481
▁Hus	-13482
▁IFA	-13483
▁Ice	-13484
▁Ich	-13485
▁Iss	-13486
▁Jag	-13487
▁Jie	-13488
▁Jur	-13489
▁Kir	-13490
▁Laf	-13491
▁Lat	-13492
▁Low	-13493
▁Lud	-13494
▁McR	-13495
▁MeV	-13496
▁Meg	-13497
▁Mik	-13498
▁Muc	-13499
▁Méd	-13500
▁NWA	-13501
▁Nah	-13502
▁Ner	-13503
▁Net	-13504
▁Nin	-13505
▁Oer	-13506
▁Ost	-13507
▁Own	-13508
▁PCI	-13509
▁Raj	-13510
▁Rhy	-13511
▁Sex	-13512
▁Sox	-13513
▁Spl	-13514
▁TGS	-13515
▁Tol	-13516
▁Tun	-13517
▁Upr	-13518
▁Vik	-13519
▁Wol	-13520
▁XVI	-13521
▁aux	-13522
▁bub	-13523
▁cis	-13524
▁cxd	-13525
▁ecc	-13526
▁enh	-13527
▁fib	-13528
▁gau	-13529
▁ger	-13530
▁hed	-13531
▁ing	-13532
▁jam	-13533
▁luc	-13534
▁mac	-13535
▁mad	-13536
▁mes	-13537
▁nit	-13538
▁née	-13539
▁oak	-13540
▁oar	-13541
▁pin	-13542
▁rot	-13543
▁sap	-13544
▁sib	-13545
▁sod	-13546
▁tie	-13547
▁vit	-13548
aboud	-13549
acher	-13550
adier	-13551
agger	-13552
aguer	-13553
alers	-13554
aluky	-13555
amity	-13556
angle	-13557
ankan	-13558
antis	-13559
arbon	-13560
arcer	-13561
arves	-13562
ashes	-13563
assau	-13564
assin	-13565
atist	-13566
attie	-13567
azers	-13568
baruk	-13569
capes	-13570
dessa	-13571
eland	-13572
ellor	-13573
eness	-13574
enton	-13575
enzie	-13576
erbee	-13577
erias	-13578
essna	-13579
found	-13580
giate	-13581
hagen	-13582
helor	-13583
heric	-13584
iancé	-13585
idian	-13586
ietro	-13587
ifada	-13588
illan	-13589
imoto	-13590
inely	-13591
iqued	-13592
iscay	-13593
itter	-13594
itzer	-13595
jamin	-13596
limin	-13597
nesty	-13598
obile	-13599
oichi	-13600
ollah	-13601
onial	-13602
onies	-13603
onnie	-13604
onset	-13605
orset	-13606
orthy	-13607
otang	-13608
othic	-13609
overy	-13610
peare	-13611
pling	-13612
poned	-13613
rable	-13614
ragon	-13615
ranto	-13616
rency	-13617
riana	-13618
rians	-13619
ribed	-13620
rimin	-13621
rowth	-13622
stand	-13623
unted	-13624
visor	-13625
zirid	-13626
▁1142	-13627
▁1200	-13628
▁1271	-13629
▁1772	-13630
▁1801	-13631
▁1833	-13632
▁1842	-13633
▁1844	-13634
▁1851	-13635
▁1864	-13636
▁1866	-13637
▁1871	-13638
▁1886	-13639
▁1888	-13640
▁1892	-13641
▁1899	-13642
▁Angl	-13643
▁Bath	-13644
▁Bert	-13645
▁Bres	-13646
▁Buff	-13647
▁Cass	-13648
▁Cele	-13649
▁Cens	-13650
▁Chak	-13651
▁Ches	-13652
▁Conc	-13653
▁Cool	-13654
▁Cubs	-13655
▁Darl	-13656
▁Dost	-13657
▁Elle	-13658
▁Emer	-13659
▁Erik	-13660
▁Ever	-13661
▁Fire	-13662
▁Five	-13663
▁Gand	-13664
▁Gaza	-13665
▁Germ	-13666
▁Gian	-13667
▁Glyn	-13668
▁Gong	-13669
▁Grey	-13670
▁Gust	-13671
▁Gwen	-13672
▁Have	-13673
▁Hezb	-13674
▁Hits	-13675
▁Hodg	-13676
▁Hugh	-13677
▁Hunt	-13678
▁ICAO	-13679
▁Iran	-13680
▁Iraq	-13681
▁Iren	-13682
▁Jade	-13683
▁Juan	-13684
▁Jump	-13685
▁Kick	-13686
▁Kron	-13687
▁Laws	-13688
▁Lear	-13689
▁Lith	-13690
▁Look	-13691
▁Lynn	-13692
▁Made	-13693
▁Mama	-13694
▁Mann	-13695
▁Mess	-13696
▁Mull	-13697
▁NATO	-13698
▁Nine	-13699
▁Oden	-13700
▁Oral	-13701
▁Pall	-13702
▁Pars	-13703
▁Pasc	-13704
▁Phot	-13705
▁Pick	-13706
▁Pipp	-13707
▁Pole	-13708
▁Poll	-13709
▁Prec	-13710
▁Prim	-13711
▁Puri	-13712
▁Real	-13713
▁Rest	-13714
▁Riga	-13715
▁Sard	-13716
▁SbCl	-13717
▁Sega	-13718
▁Shaw	-13719
▁Show	-13720
▁Slav	-13721
▁Spit	-13722
▁Teen	-13723
▁Tert	-13724
▁Tony	-13725
▁Tsar	-13726
▁USGS	-13727
▁Wait	-13728
▁Ward	-13729
▁Wind	-13730
▁Witu	-13731
▁Wool	-13732
▁Wład	-13733
▁Yuan	-13734
▁airs	-13735
▁aunt	-13736
▁ausp	-13737
▁barb	-13738
▁bert	-13739
▁biot	-13740
▁blog	-13741
▁brit	-13742
▁bulk	-13743
▁butt	-13744
▁cook	-13745
▁cors	-13746
▁crex	-13747
▁cull	-13748
▁curt	-13749
▁dawn	-13750
▁deny	-13751
▁dioc	-13752
▁dump	-13753
▁dunk	-13754
▁enzy	-13755
▁eras	-13756
▁fals	-13757
▁firm	-13758
▁flaw	-13759
▁fool	-13760
▁gear	-13761
▁glac	-13762
▁glam	-13763
▁halt	-13764
▁idle	-13765
▁imam	-13766
▁irre	-13767
▁jail	-13768
▁jets	-13769
▁lake	-13770
▁leaf	-13771
▁lift	-13772
▁lith	-13773
▁mere	-13774
▁musk	-13775
▁nose	-13776
▁obst	-13777
▁outg	-13778
▁outs	-13779
▁oxen	-13780
▁poem	-13781
▁pose	-13782
▁rely	-13783
▁riff	-13784
▁root	-13785
▁ruin	-13786
▁rush	-13787
▁sale	-13788
▁sick	-13789
▁stel	-13790
▁stew	-13791
▁stor	-13792
▁swit	-13793
▁trol	-13794
▁tube	-13795
▁unde	-13796
▁wake	-13797
▁wish	-13798
▁zeal	-13799
active	-13800
alling	-13801
asions	-13802
awatra	-13803
castle	-13804
cement	-13805
ellery	-13806
enesis	-13807
erting	-13808
escope	-13809
ewater	-13810
gomery	-13811
hattan	-13812
henska	-13813
icists	-13814
illips	-13815
inging	-13816
intend	-13817
ioners	-13818
ivided	-13819
merged	-13820
oblast	-13821
ometry	-13822
onents	-13823
onescu	-13824
ontane	-13825
ontium	-13826
ourite	-13827
oustic	-13828
rained	-13829
riages	-13830
ridges	-13831
rified	-13832
rogate	-13833
sunami	-13834
ternal	-13835
timore	-13836
uating	-13837
ulsive	-13838
verend	-13839
verton	-13840
ximity	-13841
▁Aesop	-13842
▁Alice	-13843
▁Apart	-13844
▁Armia	-13845
▁Aynes	-13846
▁Baden	-13847
▁Bible	-13848
▁Block	-13849
▁Brand	-13850
▁Chure	-13851
▁Comic	-13852
▁Creat	-13853
▁Dagen	-13854
▁Delhi	-13855
▁Demon	-13856
▁Event	-13857
▁Excav	-13858
▁Final	-13859
▁Floyd	-13860
▁Fruit	-13861
▁GASAR	-13862
▁Gobre	-13863
▁Goâve	-13864
▁Guest	-13865
▁Hadji	-13866
▁Hague	-13867
▁Henan	-13868
▁Hills	-13869
▁Ideal	-13870
▁Indus	-13871
▁Janes	-13872
▁Jelly	-13873
▁Jerry	-13874
▁Joint	-13875
▁Julia	-13876
▁Leafs	-13877
▁Leigh	-13878
▁Lynch	-13879
▁MINUS	-13880
▁Maxim	-13881
▁Neutr	-13882
▁Nicol	-13883
▁Occup	-13884
▁Opera	-13885
▁Orion	-13886
▁Parks	-13887
▁Pearl	-13888
▁Petit	-13889
▁Pitts	-13890
▁Quinn	-13891
▁Raman	-13892
▁Raven	-13893
▁Santa	-13894
▁Santo	-13895
▁Senjō	-13896
▁Shade	-13897
▁Shawn	-13898
▁Shoot	-13899
▁Stars	-13900
▁Terry	-13901
▁Trade	-13902
▁Twain	-13903
▁Venus	-13904
▁Watch	-13905
▁Weird	-13906
▁Wings	-13907
▁Words	-13908
▁admit	-13909
▁aerob	-13910
▁algae	-13911
▁alike	-13912
▁alkyl	-13913
▁alloy	-13914
▁amalg	-13915
▁amids	-13916
▁antib	-13917
▁antis	-13918
▁arche	-13919
▁argue	-13920
▁ashes	-13921
▁atroc	-13922
▁bills	-13923
▁blast	-13924
▁blind	-13925
▁bloss	-13926
▁boxer	-13927
▁brawl	-13928
▁bread	-13929
▁canon	-13930
▁cobra	-13931
▁daugh	-13932
▁dimin	-13933
▁disgr	-13934
▁disgu	-13935
▁docum	-13936
▁drive	-13937
▁embry	-13938
▁engag	-13939
▁enhan	-13940
▁erupt	-13941
▁facil	-13942
▁fidel	-13943
▁flash	-13944
▁flows	-13945
▁forts	-13946
▁fract	-13947
▁fring	-13948
▁gains	-13949
▁gamma	-13950
▁ghost	-13951
▁guilt	-13952
▁haven	-13953
▁hides	-13954
▁hilar	-13955
▁humil	-13956
▁hyper	-13957
▁inver	-13958
▁laugh	-13959
▁marsh	-13960
▁meets	-13961
▁naked	-13962
▁natur	-13963
▁nests	-13964
▁newer	-13965
▁niece	-13966
▁opium	-13967
▁overh	-13968
▁paras	-13969
▁parks	-13970
▁patch	-13971
▁phone	-13972
▁piano	-13973
▁piers	-13974
▁porch	-13975
▁prote	-13976
▁pupil	-13977
▁ratio	-13978
▁refit	-13979
▁rites	-13980
▁rowed	-13981
▁scutt	-13982
▁seeks	-13983
▁semic	-13984
▁shear	-13985
▁shing	-13986
▁simpl	-13987
▁sixty	-13988
▁slope	-13989
▁smart	-13990
▁snake	-13991
▁solve	-13992
▁souls	-13993
▁spell	-13994
▁stamp	-13995
▁strat	-13996
▁subsc	-13997
▁sworn	-13998
▁tales	-13999
▁tempt	-14000
▁trace	-14001
▁truck	-14002
▁trump	-14003
▁trunk	-14004
▁trust	-14005
▁uncle	-14006
▁uncom	-14007
▁veloc	-14008
▁venue	-14009
▁votes	-14010
▁waist	-14011
achment	-14012
actions	-14013
attered	-14014
cribing	-14015
diocese	-14016
ectives	-14017
entless	-14018
ificate	-14019
ighting	-14020
issions	-14021
issippi	-14022
ivation	-14023
mshaven	-14024
niewski	-14025
nthesis	-14026
ophilic	-14027
oreanus	-14028
oxonium	-14029
rential	-14030
speaker	-14031
theless	-14032
thening	-14033
ulamium	-14034
underst	-14035
ushroom	-14036
ventful	-14037
▁Animal	-14038
▁Annual	-14039
▁Antoni	-14040
▁Balkan	-14041
▁Banner	-14042
▁Barnes	-14043
▁Bianco	-14044
▁Biscay	-14045
▁Brahma	-14046
▁Bunder	-14047
▁Camden	-14048
▁Canyon	-14049
▁Cessna	-14050
▁Claude	-14051
▁Colomb	-14052
▁Consul	-14053
▁Deakin	-14054
▁Disney	-14055
▁Doctor	-14056
▁Dorset	-14057
▁Dragon	-14058
▁Fallen	-14059
▁Farber	-14060
▁Fellow	-14061
▁Female	-14062
▁Future	-14063
▁Gallia	-14064
▁Gospel	-14065
▁Groups	-14066
▁Habits	-14067
▁Harper	-14068
▁Herald	-14069
▁Heroes	-14070
▁Inside	-14071
▁Jacmel	-14072
▁Johnny	-14073
▁Lankan	-14074
▁Margat	-14075
▁Mariah	-14076
▁Marine	-14077
▁Mbaruk	-14078
▁McGurk	-14079
▁Member	-14080
▁Mucius	-14081
▁Nahant	-14082
▁Nassau	-14083
▁Native	-14084
▁Nielly	-14085
▁Odessa	-14086
▁Oerlik	-14087
▁Orwell	-14088
▁Peuple	-14089
▁Pietro	-14090
▁Proper	-14091
▁Relief	-14092
▁Rhymes	-14093
▁Rother	-14094
▁Ruther	-14095
▁Shakes	-14096
▁Shlaim	-14097
▁Sicily	-14098
▁Sussex	-14099
▁Taking	-14100
▁Taoist	-14101
▁Themes	-14102
▁Theore	-14103
▁Theory	-14104
▁Trajan	-14105
▁Triana	-14106
▁Usumac	-14107
▁Valent	-14108
▁Welles	-14109
▁Whilst	-14110
▁Wiesel	-14111
▁accord	-14112
▁acquis	-14113
▁aldehy	-14114
▁amidst	-14115
▁assume	-14116
▁autobi	-14117
▁azirid	-14118
▁backed	-14119
▁behalf	-14120
▁blamed	-14121
▁breath	-14122
▁brings	-14123
▁bronze	-14124
▁bucket	-14125
▁capita	-14126
▁cement	-14127
▁clergy	-14128
▁clever	-14129
▁clutch	-14130
▁coffee	-14131
▁cooler	-14132
▁cousin	-14133
▁decide	-14134
▁decomp	-14135
▁define	-14136
▁dishon	-14137
▁dissip	-14138
▁divers	-14139
▁diving	-14140
▁dormit	-14141
▁draped	-14142
▁echoed	-14143
▁embark	-14144
▁empire	-14145
▁endang	-14146
▁enters	-14147
▁exempl	-14148
▁expand	-14149
▁fabric	-14150
▁farmer	-14151
▁faults	-14152
▁fiancé	-14153
▁fights	-14154
▁financ	-14155
▁glazed	-14156
▁guards	-14157
▁habits	-14158
▁heaven	-14159
▁hollow	-14160
▁humane	-14161
▁insult	-14162
▁judged	-14163
▁lament	-14164
▁leased	-14165
▁loaded	-14166
▁locals	-14167
▁loving	-14168
▁mammal	-14169
▁methyl	-14170
▁modest	-14171
▁moored	-14172
▁naming	-14173
▁notion	-14174
▁oxygen	-14175
▁parcel	-14176
▁parody	-14177
▁parted	-14178
▁pirate	-14179
▁poison	-14180
▁poorer	-14181
▁portra	-14182
▁propri	-14183
▁quotes	-14184
▁rammed	-14185
▁refuse	-14186
▁regret	-14187
▁relate	-14188
▁remote	-14189
▁reopen	-14190
▁repeat	-14191
▁resent	-14192
▁rework	-14193
▁rooted	-14194
▁routes	-14195
▁rowing	-14196
▁sailor	-14197
▁saloon	-14198
▁sample	-14199
▁scheme	-14200
▁scores	-14201
▁shower	-14202
▁slopes	-14203
▁solemn	-14204
▁speaks	-14205
▁spines	-14206
▁spiral	-14207
▁stabil	-14208
▁tennis	-14209
▁thrash	-14210
▁timing	-14211
▁topics	-14212
▁transf	-14213
▁treble	-14214
▁trough	-14215
▁tuning	-14216
▁turuma	-14217
▁unanim	-14218
▁united	-14219
▁unused	-14220
▁vandal	-14221
▁visits	-14222
▁volunt	-14223
▁weaker	-14224
▁weekly	-14225
▁wishes	-14226
aboudjan	-14227
andering	-14228
chemical	-14229
entleman	-14230
ifferent	-14231
iquerias	-14232
liminary	-14233
mountain	-14234
ocalypse	-14235
tymology	-14236
ylvanian	-14237
▁Affairs	-14238
▁Against	-14239
▁Amateur	-14240
▁Andrzej	-14241
▁Bahamas	-14242
▁Baptist	-14243
▁Barbara	-14244
▁Beattie	-14245
▁Bhopali	-14246
▁Blazers	-14247
▁Brandon	-14248
▁Brother	-14249
▁Cardiff	-14250
▁Cavalry	-14251
▁Celtics	-14252
▁Certain	-14253
▁Chaluky	-14254
▁Charter	-14255
▁Cornish	-14256
▁Country	-14257
▁Courier	-14258
▁Coyotes	-14259
▁Critics	-14260
▁Crosses	-14261
▁Darling	-14262
▁Economy	-14263
▁Estañol	-14264
▁Filkins	-14265
▁Gardens	-14266
▁Gazette	-14267
▁Harbour	-14268
▁Hilberg	-14269
▁Hindman	-14270
▁Hopkins	-14271
▁Indians	-14272
▁Junkers	-14273
▁Jupiter	-14274
▁Kenneth	-14275
▁Krajowa	-14276
▁Leopold	-14277
▁Martial	-14278
▁Memphis	-14279
▁Mercury	-14280
▁Miracle	-14281
▁Monster	-14282
▁Musical	-14283
▁Norfolk	-14284
▁Nothing	-14285
▁Nuclear	-14286
▁Otranto	-14287
▁Overall	-14288
▁Passing	-14289
▁Passion	-14290
▁Physics	-14291
▁Picture	-14292
▁Pitlake	-14293
▁Popular	-14294
▁Quarter	-14295
▁Quonset	-14296
▁Sabbath	-14297
▁Saladin	-14298
▁Salamis	-14299
▁Sandler	-14300
▁Sanjeev	-14301
▁Shannon	-14302
▁Summary	-14303
▁Switzer	-14304
▁Thomson	-14305
▁Valiant	-14306
▁Variety	-14307
▁Vitamin	-14308
▁Walking	-14309
▁Webster	-14310
▁Whalers	-14311
▁Wilhelm	-14312
▁Workers	-14313
▁Working	-14314
▁Writers	-14315
▁Wyoming	-14316
▁YouTube	-14317
▁Zionist	-14318
▁abusive	-14319
▁adorned	-14320
▁airplay	-14321
▁alcohol	-14322
▁aligned	-14323
▁amazing	-14324
▁anchors	-14325
▁apprent	-14326
▁authent	-14327
▁backing	-14328
▁basidia	-14329
▁beaches	-14330
▁belongs	-14331
▁beneath	-14332
▁berthed	-14333
▁bonding	-14334
▁bottles	-14335
▁bravery	-14336
▁broadly	-14337
▁cameras	-14338
▁captive	-14339
▁cavalry	-14340
▁cinemas	-14341
▁cistern	-14342
▁citizen	-14343
▁coached	-14344
▁compare	-14345
▁compete	-14346
▁contrad	-14347
▁corsage	-14348
▁costume	-14349
▁credits	-14350
▁crewmen	-14351
▁crucial	-14352
▁cruelty	-14353
▁default	-14354
▁demands	-14355
▁desktop	-14356
▁devotes	-14357
▁editors	-14358
▁ensuing	-14359
▁enthusi	-14360
▁epithet	-14361
▁exagger	-14362
▁exhibit	-14363
▁explode	-14364
▁exploit	-14365
▁explore	-14366
▁favored	-14367
▁filming	-14368
▁finance	-14369
▁flatten	-14370
▁forbids	-14371
▁genuine	-14372
▁gunboat	-14373
▁gunfire	-14374
▁gunnery	-14375
▁handful	-14376
▁heading	-14377
▁horizon	-14378
▁inaugur	-14379
▁inflamm	-14380
▁infring	-14381
▁involve	-14382
▁lacking	-14383
▁lateral	-14384
▁leagues	-14385
▁legally	-14386
▁lending	-14387
▁lengthy	-14388
▁letters	-14389
▁lobbied	-14390
▁loosely	-14391
▁marched	-14392
▁markets	-14393
▁noticed	-14394
▁nucleus	-14395
▁observe	-14396
▁orchest	-14397
▁outcome	-14398
▁pageant	-14399
▁pairing	-14400
▁pottery	-14401
▁presses	-14402
▁pretend	-14403
▁propose	-14404
▁prowess	-14405
▁publish	-14406
▁pumping	-14407
▁qualify	-14408
▁railway	-14409
▁reacted	-14410
▁recruit	-14411
▁reduces	-14412
▁reintro	-14413
▁rejects	-14414
▁relapse	-14415
▁relates	-14416
▁remarks	-14417
▁rescues	-14418
▁revital	-14419
▁rigging	-14420
▁robbery	-14421
▁rupture	-14422
▁samples	-14423
▁screens	-14424
▁sectors	-14425
▁shifted	-14426
▁sighted	-14427
▁singled	-14428
▁sinking	-14429
▁skilled	-14430
▁slender	-14431
▁slipped	-14432
▁soldier	-14433
▁sparked	-14434
▁starter	-14435
▁strikes	-14436
▁stylish	-14437
▁summers	-14438
▁symbols	-14439
▁theolog	-14440
▁threads	-14441
▁transit	-14442
▁trawler	-14443
▁tweeter	-14444
▁unaware	-14445
▁undergo	-14446
▁upgrade	-14447
▁upriver	-14448
▁varying	-14449
▁vaulted	-14450
▁vehicle	-14451
▁violate	-14452
▁wanting	-14453
▁watches	-14454
▁whoever	-14455
▁winters	-14456
▁worldly	-14457
breakable	-14458
criptions	-14459
igarettes	-14460
ographers	-14461
ographies	-14462
operidium	-14463
structure	-14464
umberland	-14465
▁Academic	-14466
▁Allenton	-14467
▁Antilles	-14468
▁Athletic	-14469
▁Augustus	-14470
▁Balaguer	-14471
▁Bannawit	-14472
▁Basilica	-14473
▁Benjamin	-14474
▁Brooklyn	-14475
▁Campaign	-14476
▁Complete	-14477
▁Counties	-14478
▁Crescent	-14479
▁Dagenham	-14480
▁Dripping	-14481
▁Einstein	-14482
▁Elbridge	-14483
▁Electric	-14484
▁Ellerbee	-14485
▁Folklore	-14486
▁Gobrecht	-14487
▁Goldberg	-14488
▁Hendford	-14489
▁Inherent	-14490
▁Internet	-14491
▁Laverton	-14492
▁Leonardo	-14493
▁Lewiston	-14494
▁MINUSTAH	-14495
▁McCarthy	-14496
▁McDonald	-14497
▁Moreover	-14498
▁Numerous	-14499
▁Observer	-14500
▁Orthodox	-14501
▁Phillips	-14502
▁Pictures	-14503
▁Portisch	-14504
▁Released	-14505
▁Reverend	-14506
▁Sakimoto	-14507
▁Security	-14508
▁Shaotang	-14509
▁Sicilian	-14510
▁Signific	-14511
▁Southend	-14512
▁Standing	-14513
▁Sudanese	-14514
▁Synopsis	-14515
▁Woodland	-14516
▁Yangzhou	-14517
▁abundant	-14518
▁adequate	-14519
▁adopting	-14520
▁advances	-14521
▁agreeing	-14522
▁amounted	-14523
▁ancestry	-14524
▁anchored	-14525
▁appealed	-14526
▁assembly	-14527
▁attained	-14528
▁auspices	-14529
▁birthday	-14530
▁cannibal	-14531
▁captives	-14532
▁captures	-14533
▁casualty	-14534
▁catalyst	-14535
▁censored	-14536
▁charting	-14537
▁chestnut	-14538
▁classify	-14539
▁clusters	-14540
▁compound	-14541
▁concepts	-14542
▁confined	-14543
▁costumes	-14544
▁counting	-14545
▁coverage	-14546
▁cultures	-14547
▁database	-14548
▁declines	-14549
▁defender	-14550
▁designer	-14551
▁detached	-14552
▁distract	-14553
▁diverted	-14554
▁downward	-14555
▁drilling	-14556
▁dynastic	-14557
▁earnings	-14558
▁enabling	-14559
▁engaging	-14560
▁evacuate	-14561
▁everyday	-14562
▁exploits	-14563
▁explorer	-14564
▁feasible	-14565
▁fidelity	-14566
▁flexible	-14567
▁floating	-14568
▁folklore	-14569
▁fragment	-14570
▁generals	-14571
▁grandson	-14572
▁guardian	-14573
▁highways	-14574
▁hydrogen	-14575
▁imitated	-14576
▁immature	-14577
▁imposing	-14578
▁inducted	-14579
▁inferior	-14580
▁informal	-14581
▁inherent	-14582
▁interven	-14583
▁judicial	-14584
▁junction	-14585
▁koreanus	-14586
▁lectures	-14587
▁lifetime	-14588
▁listings	-14589
▁longtime	-14590
▁marrying	-14591
▁measured	-14592
▁memories	-14593
▁mentions	-14594
▁modelled	-14595
▁moisture	-14596
▁monarchy	-14597
▁narrated	-14598
▁networks	-14599
▁offenses	-14600
▁ornament	-14601
▁overpass	-14602
▁pantheon	-14603
▁payments	-14604
▁pharaohs	-14605
▁planners	-14606
▁policing	-14607
▁portions	-14608
▁pounders	-14609
▁precious	-14610
▁presided	-14611
▁printers	-14612
▁priority	-14613
▁prisoner	-14614
▁probable	-14615
▁prospect	-14616
▁reflects	-14617
▁regained	-14618
▁rejoined	-14619
▁reliance	-14620
▁relieved	-14621
▁removing	-14622
▁reopened	-14623
▁reprised	-14624
▁rotation	-14625
▁sandwich	-14626
▁sciences	-14627
▁scrutiny	-14628
▁sexually	-14629
▁sleeping	-14630
▁somebody	-14631
▁spectrum	-14632
▁spelling	-14633
▁sponsors	-14634
▁spontane	-14635
▁standout	-14636
▁steadily	-14637
▁stealing	-14638
▁stibnite	-14639
▁stranded	-14640
▁sulfides	-14641
▁superfic	-14642
▁supports	-14643
▁tendency	-14644
▁terrible	-14645
▁thirteen	-14646
▁threaten	-14647
▁throwing	-14648
▁tourists	-14649
▁treasure	-14650
▁troubled	-14651
▁troubles	-14652
▁unstable	-14653
▁velocity	-14654
▁volatile	-14655
oselective	-14656
▁Aftermath	-14657
▁Alongside	-14658
▁Antonescu	-14659
▁Authority	-14660
▁Baltimore	-14661
▁Bellerive	-14662
▁Boulevard	-14663
▁Canadiens	-14664
▁Christgau	-14665
▁Columbian	-14666
▁Communist	-14667
▁Criticism	-14668
▁Democracy	-14669
▁Formation	-14670
▁Goldhagen	-14671
▁Goldstein	-14672
▁Greenaway	-14673
▁Hezbollah	-14674
▁Housefull	-14675
▁Interview	-14676
▁Knowledge	-14677
▁Leicester	-14678
▁Manhattan	-14679
▁Moshenska	-14680
▁Permanent	-14681
▁Professor	-14682
▁Provision	-14683
▁Religious	-14684
▁Returning	-14685
▁Rotherham	-14686
▁Segontium	-14687
▁Selective	-14688
▁Testament	-14689
▁Władysław	-14690
▁abundance	-14691
▁accidents	-14692
▁acclaimed	-14693
▁advancing	-14694
▁affecting	-14695
▁alignment	-14696
▁allocated	-14697
▁amidships	-14698
▁animation	-14699
▁bandmates	-14700
▁brutality	-14701
▁certainly	-14702
▁commended	-14703
▁communist	-14704
▁comparing	-14705
▁concealed	-14706
▁conflicts	-14707
▁consulted	-14708
▁contempor	-14709
▁cooperate	-14710
▁corporate	-14711
▁critiqued	-14712
▁crossover	-14713
▁daughters	-14714
▁desirable	-14715
▁directing	-14716
▁discovers	-14717
▁disembark	-14718
▁dockyards	-14719
▁elaborate	-14720
▁elevation	-14721
▁excavated	-14722
▁exercises	-14723
▁extension	-14724
▁favourite	-14725
▁festivals	-14726
▁flintlock	-14727
▁framework	-14728
▁hazardous	-14729
▁headdress	-14730
▁hierarchy	-14731
▁infection	-14732
▁insurance	-14733
▁introduce	-14734
▁invention	-14735
▁jewellery	-14736
▁launching	-14737
▁lifestyle	-14738
▁lightning	-14739
▁literally	-14740
▁mandatory	-14741
▁marketing	-14742
▁motivated	-14743
▁munitions	-14744
▁mythology	-14745
▁naturally	-14746
▁negotiate	-14747
▁notorious	-14748
▁offenders	-14749
▁orchestra	-14750
▁oxidation	-14751
▁patriarch	-14752
▁petroleum	-14753
▁plutonium	-14754
▁policeman	-14755
▁pollution	-14756
▁postponed	-14757
▁predicted	-14758
▁primitive	-14759
▁promising	-14760
▁prototype	-14761
▁provision	-14762
▁proximity	-14763
▁referring	-14764
▁rendering	-14765
▁reporting	-14766
▁requiring	-14767
▁resembles	-14768
▁responses	-14769
▁retention	-14770
▁reviewers	-14771
▁sanctuary	-14772
▁scrapping	-14773
▁sequences	-14774
▁shattered	-14775
▁shortages	-14776
▁slaughter	-14777
▁spokesman	-14778
▁spreading	-14779
▁submerged	-14780
▁torpedoes	-14781
▁undergone	-14782
▁universal	-14783
▁variously	-14784
▁villagers	-14785
▁witnessed	-14786
ortheastern	-14787
▁Alessandro	-14788
▁Atherstone	-14789
[...]
